[PAD]
[CLS]
[SEP]
[MASK]
，
的
、
一
人
有
是
在
中
为
和
了
不
年
学
大
国
生
以
“
”
作
业
个
上
用
,
地
会
成
发
工
时
于
理
出
行
要
.
等
他
到
之
这
可
后
家
对
能
公
与
》
《
主
方
分
经
来
全
其
部
多
产
自
文
高
动
进
法
化
：
我
面
）
（
实
教
建
体
而
长
子
下
现
开
本
力
定
性
过
设
合
小
同
机
市
品
水
新
内
事
也
种
及
制
入
所
心
务
就
管
们
得
展
重
民
加
区
物
者
通
天
政
三
电
关
度
第
名
术
最
系
月
外
资
日
代
员
如
间
位
并
书
科
村
应
量
道
前
当
无
里
相
平
从
计
提
保
任
程
技
都
研
十
基
特
好
被
或
目
将
使
山
二
说
数
点
明
情
元
着
收
组
然
美
各
由
场
金
形
农
期
因
表
此
色
起
还
立
世
安
活
专
质
1
规
社
万
信
西
统
结
路
利
次
南
式
意
级
常
师
校
你
育
果
究
司
服
门
海
导
流
项
她
总
处
两
传
东
正
省
院
户
手
具
2
原
强
北
向
先
但
米
城
企
件
风
军
身
更
知
已
气
战
至
单
口
集
创
解
四
标
交
比
商
论
界
题
变
花
3
改
类
运
指
型
调
女
神
接
造
受
广
只
委
去
共
治
达
持
条
网
头
构
县
些
该
又
那
想
样
办
济
5
格
责
车
很
施
求
己
光
精
林
完
爱
线
参
少
积
清
看
优
报
王
直
没
每
据
游
效
感
五
影
别
获
领
称
选
供
乐
老
么
台
问
划
带
器
源
织
放
深
备
视
白
功
取
装
营
见
记
环
队
节
准
石
它
回
历
负
真
增
医
联
做
职
容
士
包
义
观
团
病
4
府
息
则
考
料
华
州
语
证
整
让
江
史
空
验
需
支
命
给
离
认
艺
较
土
古
养
才
境
推
把
均
图
际
斯
近
片
局
修
字
德
权
步
始
复
转
协
即
打
画
投
决
何
约
反
quot
费
议
护
极
河
房
查
布
思
干
价
儿
非
马
党
奖
模
故
编
音
范
识
率
存
引
客
属
评
采
尔
配
镇
室
再
案
监
习
注
根
克
演
食
族
示
球
状
青
号
张
百
素
首
易
热
阳
今
园
防
版
太
乡
英
6
材
列
便
写
住
置
层
助
确
试
难
承
象
居
10
黄
快
断
维
却
红
速
连
众
0
细
态
话
周
言
药
培
血
亩
龙
越
值
几
边
读
未
曾
测
算
京
景
余
站
低
温
消
必
切
依
随
且
志
卫
域
照
许
限
著
销
落
足
适
争
策
8
控
武
按
7
初
角
核
死
检
富
满
显
审
除
致
亲
占
失
星
章
善
续
千
叶
火
副
告
段
什
声
终
况
走
木
益
戏
独
纪
植
财
群
六
赛
远
拉
亚
密
排
超
像
课
围
往
响
击
疗
念
八
云
险
律
请
革
诗
批
底
压
双
男
训
例
汉
升
拥
势
酒
眼
官
牌
油
曲
友
望
黑
歌
筑
础
香
仅
担
括
湖
严
秀
剧
九
举
执
充
兴
督
博
草
般
李
健
喜
授
普
预
灵
突
良
款
罗
9
微
七
录
朝
飞
宝
令
轻
劳
距
异
简
兵
树
序
候
含
福
尽
留
20
丰
旅
征
临
破
移
篇
抗
典
端
苏
奇
止
康
店
毛
觉
春
售
络
降
板
坚
母
讲
早
印
略
孩
夫
藏
铁
害
互
帝
田
融
皮
宗
岁
载
析
斗
须
伤
12
介
另
00
半
班
馆
味
楼
卡
射
述
杀
波
绿
免
兰
绝
刻
短
察
输
择
综
杂
份
纳
父
词
银
送
座
左
继
固
宣
厂
肉
换
补
税
派
套
欢
播
吸
圆
攻
阿
购
听
右
减
激
巴
背
够
遇
智
玉
找
宽
陈
练
追
毕
彩
软
帮
股
荣
托
予
佛
堂
障
皇
若
守
似
届
待
货
散
额
30
尚
穿
丽
骨
享
差
针
索
稳
宁
贵
酸
液
唐
操
探
玩
促
笔
库
救
虽
久
闻
顶
床
港
鱼
亿
登
11
永
毒
桥
冷
魔
秘
陆
您
童
归
侧
沙
染
封
紧
松
川
刘
15
雄
希
毫
卷
某
季
菜
庭
附
逐
夜
宫
洲
退
顾
尼
胜
剂
纯
舞
遗
苦
梦
挥
航
愿
街
招
矿
夏
盖
献
怎
茶
申
39
吧
脑
亦
吃
频
宋
央
威
厚
块
冲
叫
熟
礼
厅
否
渐
笑
钱
钟
甚
牛
丝
靠
岛
绍
盘
缘
聚
静
雨
氏
圣
顺
唱
刊
阶
困
急
饰
弹
庄
既
野
阴
混
饮
损
齐
末
错
轮
宜
鲜
兼
敌
粉
祖
延
100
钢
辑
欧
硬
甲
诉
册
痛
订
缺
晚
衣
佳
脉
gt
盛
乎
拟
贸
扩
船
仪
谁
警
50
停
席
竞
释
庆
汽
仍
掌
诸
仙
弟
吉
洋
奥
票
危
架
买
径
塔
休
付
恶
雷
怀
秋
借
巨
透
誉
厘
句
跟
胞
婚
幼
烈
峰
寻
君
汇
趣
纸
假
肥
患
杨
雅
罪
谓
亮
脱
寺
烟
判
绩
乱
刚
摄
洞
践
码
启
励
呈
曰
呢
符
哥
媒
疾
坐
雪
孔
倒
旧
菌
岩
鼓
亡
访
症
暗
湾
幸
池
讨
努
露
吗
繁
途
殖
败
蛋
握
刺
耕
洗
沉
概
哈
泛
凡
残
隐
虫
朋
虚
餐
殊
慢
询
蒙
孙
谈
鲁
裂
贴
污
漫
谷
违
泉
拿
森
横
扬
键
膜
迁
尤
涉
净
诚
折
冰
械
拍
梁
沿
避
吴
惊
犯
灭
湿
迷
姓
阅
灯
妇
触
冠
答
俗
档
尊
谢
措
筹
竟
韩
签
剑
鉴
灾
贯
迹
洛
沟
束
翻
巧
坏
弱
零
壁
枝
映
恩
抓
屋
呼
脚
绘
40
淡
辖
2010
伊
粒
欲
震
伯
私
蓝
甘
储
胡
卖
梅
16
耳
疑
润
伴
泽
牧
烧
尾
累
糖
怪
唯
莫
粮
柱
18
竹
灰
岸
缩
井
伦
柔
盟
珠
丹
amp
皆
哪
迎
颜
衡
啊
塑
寒
13
紫
镜
25
氧
误
伍
彻
刀
览
炎
津
耐
秦
尖
潮
描
浓
召
禁
阻
胶
译
腹
泰
乃
盐
潜
鸡
诺
遍
2000
纹
冬
牙
麻
辅
猪
弃
楚
羊
晋
14
鸟
赵
洁
谋
隆
滑
60
2008
籍
臣
朱
泥
墨
辆
墙
浪
姐
赏
纵
2006
拔
倍
纷
摩
壮
苗
偏
塞
贡
仁
宇
卵
瓦
枪
覆
殿
刑
贫
妈
幅
幕
忆
丁
估
废
萨
舍
详
旗
岗
洪
80
贝
2009
迅
凭
勇
雕
奏
旋
杰
煤
阵
乘
溪
奉
畜
挑
昌
硕
庙
惠
薄
逃
爆
哲
浙
珍
炼
栏
暴
币
隔
吨
倾
嘉
址
陶
绕
诊
遭
桃
魂
兽
豆
闲
箱
拓
燃
裁
晶
掉
脂
溶
顿
肤
虑
鬼
2007
灌
徐
龄
陵
恋
侵
坡
寿
勤
磨
妹
瑞
缓
轴
麦
羽
咨
凝
默
驻
敢
债
17
浮
幻
株
浅
敬
敏
陷
凤
坛
虎
乌
铜
御
乳
讯
循
圈
肌
妙
奋
忘
闭
墓
21
汤
忠
2005
跨
怕
振
宾
跑
屏
坦
粗
租
悲
伟
拜
24
妻
赞
兄
宿
碑
貌
勒
罚
夺
偶
截
纤
2011
齿
郑
聘
偿
扶
豪
慧
跳
the
疏
莱
腐
插
恐
郎
辞
挂
娘
肿
徒
伏
磁
杯
丛
旨
琴
19
炮
醒
砖
替
辛
暖
锁
杜
肠
孤
饭
脸
邮
贷
lt
俄
毁
荷
谐
荒
肝
链
2004
2012
尺
尘
援
a
疫
崇
恢
扎
伸
幽
抵
胸
谱
舒
迫
200
畅
泡
岭
喷
70
窗
捷
宏
肯
90
狂
铺
骑
抽
券
俱
徽
胆
碎
邀
褐
斤
涂
赋
署
颗
2003
渠
仿
迪
炉
辉
涵
耗
22
返
邻
斑
董
魏
午
娱
浴
尿
曼
锅
柳
舰
搭
旁
宅
趋
of
凉
赢
伙
爷
廷
戴
壤
奶
页
玄
驾
阔
轨
朗
捕
肾
稿
惯
侯
乙
渡
稍
恨
脏
2002
姆
腔
抱
杆
垂
赴
赶
莲
辽
荐
旦
妖
2013
稀
驱
沈
役
晓
亭
仲
澳
500
炸
绪
28
陕
and
23
恒
堡
纠
仇
懂
焦
搜
s
忍
贤
添
i
艾
赤
犹
尝
锦
稻
撰
填
衰
栽
邪
粘
跃
桌
胃
悬
c
翼
彼
睡
曹
刷
摆
悉
锋
26
摇
抢
乏
廉
鼠
盾
瓷
抑
埃
邦
遂
寸
渔
祥
胎
牵
壳
甜
卓
瓜
袭
遵
巡
逆
玛
韵
2001
桑
酷
赖
桂
郡
肃
仓
寄
塘
瘤
300
碳
搞
燕
蒸
允
忽
斜
穷
郁
囊
奔
昆
盆
愈
递
1000
黎
祭
怒
辈
腺
滚
暂
郭
璃
踪
芳
碍
肺
狱
冒
阁
砂
35
苍
揭
踏
颇
柄
闪
孝
葡
腾
茎
鸣
撤
仰
伐
丘
於
泪
荡
扰
纲
拼
欣
纽
癌
堆
27
菲
b
披
挖
寓
履
捐
悟
乾
嘴
钻
拳
吹
柏
遥
抚
忧
赠
霸
艰
淋
猫
帅
奈
寨
滴
鼻
掘
狗
驶
朴
拆
惜
玻
扣
萄
蔬
宠
2014
缴
赫
凯
滨
乔
腰
葬
孟
吾
枚
圳
忙
扫
杭
凌
1998
梯
丈
隶
1999
剪
盗
擅
疆
弯
携
拒
秒
颁
醇
割
浆
姑
爸
螺
穗
缝
慈
喝
瓶
漏
悠
猎
番
孕
伪
漂
腿
吐
坝
滤
函
匀
偷
浩
矛
僧
辨
俊
棉
铸
29
诞
丧
夹
to
姿
睛
淮
阀
姜
45
尸
猛
1997
芽
账
旱
醉
弄
坊
烤
萧
矣
雾
倡
榜
弗
氨
朵
锡
袋
拨
湘
岳
烦
肩
熙
炭
婆
棋
禅
穴
宙
汗
艳
儒
叙
晨
颈
峡
拖
烂
茂
戒
飘
氛
蒂
撞
瓣
箭
叛
1996
31
鞋
劲
祝
娜
饲
侍
诱
叹
卢
弥
32
鼎
厦
屈
慕
魅
m
厨
嫁
绵
逼
扮
叔
酶
燥
狼
滋
汁
辐
怨
翅
佩
坑
旬
沃
剩
蛇
颖
篮
锐
侠
匹
唤
熊
漠
迟
敦
雌
谨
婴
浸
磷
筒
2015
滩
埋
框
弘
吕
碰
纺
硫
堪
契
蜜
蓄
1995
阐
apos
傲
碱
晰
狭
撑
叉
卧
劫
闹
赐
邓
奴
溉
浦
蹈
辣
遣
耀
耶
翠
t
叠
迈
霍
碧
恰
脊
昭
摸
饱
赔
泄
哭
讼
逝
逻
廊
擦
渗
彰
you
卿
旺
宪
36
顷
妆
陪
葛
仔
淀
翰
悦
穆
煮
辩
弦
in
串
押
蚀
逢
贺
焊
煌
缔
惑
鹿
袁
糊
逸
舟
勃
侦
涯
蔡
辟
涌
枯
痕
疼
莉
柴
1993
眉
1992
罢
催
衔
秉
妃
鸿
傅
400
辰
聪
咸
1994
扇
盈
勘
佐
泊
抛
搬
牢
宴
牲
贾
摘
姻
慎
帕
忌
卒
夕
卜
惟
挺
崖
炒
爵
冻
椒
鳞
祸
潭
腊
蒋
缠
寂
眠
冯
芯
槽
吊
33
150
聊
梗
嫩
凶
铭
爽
筋
韦
脾
铝
肢
栋
勾
萌
渊
掩
狮
撒
漆
骗
禽
38
蕴
坪
洒
冶
兹
椭
喻
泵
哀
翔
1990
棒
芝
x
扑
3000
毅
衍
惨
疯
欺
贼
肖
轰
巢
臂
轩
扁
淘
犬
宰
祠
挡
厌
帐
蜂
狐
垃
昂
圾
秩
芬
瞬
枢
舌
唇
棕
1984
霞
霜
艇
侨
鹤
硅
靖
哦
削
泌
奠
d
吏
夷
咖
彭
窑
胁
肪
120
贞
劝
钙
柜
鸭
75
庞
兔
荆
丙
纱
34
戈
藤
矩
泳
惧
铃
渴
胀
袖
丸
狠
豫
茫
1985
浇
菩
氯
啡
1988
葱
37
梨
霉
脆
氢
巷
丑
娃
锻
愤
贪
蝶
1991
厉
闽
浑
斩
栖
l
茅
昏
龟
碗
棚
滞
慰
600
2016
斋
虹
屯
萝
饼
窄
潘
绣
丢
芦
鳍
42
裕
誓
腻
48
95
锈
吞
蜀
啦
扭
5000
巩
髓
1987
劣
拌
谊
涛
勋
郊
莎
痴
窝
驰
1986
跌
笼
挤
溢
1989
隙
55
鹰
诏
帽
65
芒
爬
凸
牺
熔
吻
竭
瘦
冥
800
搏
屡
昔
萼
愁
捉
翁
怖
汪
烯
疲
缸
溃
85
泼
剖
涨
橡
谜
悔
嫌
盒
苯
凹
绳
畏
罐
虾
柯
邑
馨
兆
帖
陌
禄
垫
壶
逊
骤
祀
晴
蓬
e
苞
煎
菊
堤
甫
拱
氮
罕
舶
伞
姚
弓
嵌
1983
1982
馈
琼
噪
雀
呵
汝
焉
陀
胺
惩
沼
枣
桐
酱
遮
孢
钝
呀
锥
妥
酿
巫
闯
沧
崩
蕊
酬
匠
躲
43
喊
98
琳
46
绎
喉
凰
抬
93
膨
盲
剥
喂
庸
奸
n
钩
冈
募
苑
杏
杉
辱
隋
薪
绒
1980
99
欠
尉
r
攀
抹
巾
1958
渣
苹
猴
悄
屠
41
颂
湛
魄
颠
1949
呆
粤
岂
娇
暑
44
56
52
鹅
筛
膏
樱
p
缆
襄
瑟
恭
泻
匪
兮
恼
吟
仕
蔽
骄
蚕
斥
椅
姬
谦
for
椎
搅
卸
沫
怜
坎
瑰
1978
钦
h
拾
厕
後
逾
薯
衬
钾
崔
稽
蛮
殷
晒
47
菇
臭
弧
擎
粹
纬
1500
焰
玲
竣
咒
歇
糕
诵
茨
妮
酯
麟
卑
浏
咽
罩
舱
酵
晕
顽
赁
咬
枫
冀
贮
艘
亏
薛
瀑
篆
膀
沸
雍
咳
尹
愉
烹
坠
勿
钠
64
坤
甸
墅
闸
藻
韧
鄂
58
51
91
j
瑶
舆
夸
54
蕾
栗
咏
丞
抄
鹏
弊
檐
骂
仆
峻
爪
赚
帆
娶
嘛
钓
澄
猜
1979
裔
抒
铅
卉
彦
f
删
衷
禹
寡
蒲
砌
on
棱
72
拘
堵
雁
仄
荫
53
k
1981
祈
49
奢
赌
寇
3d
隧
摊
雇
卦
婉
敲
挣
皱
虞
亨
懈
挽
珊
饶
滥
锯
闷
it
酮
虐
兑
僵
傻
62
沦
巅
鞭
梳
赣
锌
庐
薇
庵
57
96
慨
肚
妄
g
仗
绑
2017
枕
牡
000
胖
沪
垒
捞
捧
竖
蜡
桩
厢
孵
黏
拯
63
谭
68
诈
灿
釉
1956
裹
钮
俩
o
灶
彝
蟹
涩
醋
110
匙
歧
刹
玫
棘
橙
凑
桶
刃
伽
4000
硝
怡
籽
敞
淳
矮
镶
戚
幢
涡
66
尧
膝
is
哉
肆
畔
溯
97
媚
烘
01
67
窃
焚
澜
愚
棵
乞
86
78
佑
76
iphone
暨
敷
饥
俯
蔓
v
05
88
暮
砍
邵
仑
毗
剿
馀
180
锤
刮
1950
梭
摧
250
掠
躯
诡
匈
侣
胚
疮
59
裙
windows
裸
08
塌
吓
俘
糙
藩
楷
羞
with
鲍
帘
裤
宛
憾
桓
痰
寞
骚
惹
笋
萃
92
栓
61
挫
矢
垦
09
垄
绸
凄
your
镀
熏
钉
1945
led
粪
缅
洽
鞘
蔗
82
迄
沐
凿
勉
昨
喘
700
爹
屑
耻
沥
庶
涅
腕
袍
懒
阜
嗜
朔
1200
蒜
沛
坟
轿
喀
笛
狄
饿
蓉
泣
窟
130
豹
屿
73
崛
迦
诠
贬
腥
83
钥
嗣
瑜
07
倦
萎
拦
冤
讽
潇
谣
趁
1960
妨
84
贩
74
萍
窦
纂
缀
矫
淑
墩
梵
沾
淫
乖
汰
莞
81
旷
浊
挚
撼
69
87
氟
焕
06
庚
掀
诀
kg
盼
71
疹
窖
匆
厥
轧
89
淹
94
160
亥
鸦
棍
谅
歼
汕
挪
蚁
敛
魁
畴
炫
丫
奎
菱
沂
撕
阎
詹
03
蛛
77
靡
瞻
咱
愧
烷
畸
灸
眸
that
觅
芜
1955
廓
斌
躁
麓
摔
1970
烛
睹
孜
缚
堕
昼
睿
琪
琉
贱
6000
渝
跋
1959
茄
1957
舜
1976
诛
1952
捣
芙
04
1961
倚
1938
酰
澈
慌
帜
颤
陇
1962
02
颌
昧
佣
眷
徙
禾
逮
1948
79
莹
碟
梢
朽
粥
喇
1964
榆
驳
楔
1965
啸
肋
dna
踢
1975
1937
u
傍
桔
肴
呕
旭
埠
贿
曝
杖
俭
栩
1953
斧
镁
匾
踩
橘
颅
1963
囚
蛙
1946
膳
坞
琐
荧
瘟
涤
胰
衫
噬
皖
邱
埔
汀
羡
睐
葵
耿
糟
厄
秧
黔
蹄
140
漳
鞍
谏
腋
簇
梧
戎
1977
榴
诣
宦
苔
揽
簧
狸
阙
扯
耍
棠
脓
烫
翘
芭
躺
羁
藉
拐
1966
陡
1954
漓
棺
钧
琅
扔
寝
绚
熬
驿
邹
杠
1972
w
绥
窥
晃
渭
1947
樊
鑫
祁
陋
哺
堰
祛
y
梓
崎
1968
孽
蝴
蔚
抖
苟
肇
溜
绅
妾
1940
跪
沁
q
1973
莽
虏
be
瞄
砸
稚
僚
崭
迭
皂
彬
雏
ip
羲
缕
绞
俞
簿
耸
廖
嘲
can
1969
翌
榄
裴
槐
1939
洼
睁
1951
灼
啤
臀
啥
濒
醛
峨
葫
悍
笨
嘱
1935
稠
360
韶
1941
陛
峭
1974
酚
翩
舅
8000
寅
1936
蕉
阮
垣
戮
me
趾
犀
巍
re
霄
1942
1930
饪
sci
秆
朕
驼
肛
揉
ipad
楠
岚
疡
帧
柑
iso9001
赎
逍
滇
璋
礁
黛
钞
邢
涧
劈
瞳
砚
驴
1944
锣
恳
栅
吵
牟
沌
瞩
咪
毯
炳
淤
盯
芋
粟
350
栈
戊
盏
峪
拂
暇
酥
汛
900
pc
嚣
2500
轼
妒
匿
1934
鸽
蝉
cd
痒
宵
瘫
1927
1943
璧
汲
1971
冢
碌
琢
磅
卤
105
剔
谎
圩
酌
捏
渺
媳
1933
穹
谥
骏
哨
骆
乒
10000
摹
兜
柿
喧
呜
捡
橄
逗
瑚
呐
檀
辜
妊
祯
1931
苷
don
衙
笃
芸
霖
荔
闺
羌
芹
dvd
哼
糯
吼
蕃
嵩
矶
绽
坯
娠
1928
祷
锰
qq
by
瘀
108
岐
1932
茵
筝
斐
肽
歉
1929
嗽
恤
汶
聂
樟
擒
鹃
拙
鲤
絮
鄙
彪
ipod
z
嗓
墟
骼
渤
僻
豁
谕
荟
姨
婷
挠
哇
炙
220
诅
娥
哑
阱
嫉
圭
乓
橱
歪
禧
甩
坷
晏
驯
讳
泗
煞
my
淄
倪
妓
窍
竿
襟
匡
钛
侈
ll
侄
铲
哮
厩
1967
亢
101
辕
瘾
辊
狩
掷
潍
240
伺
嘿
弈
嘎
陨
娅
1800
昊
犁
屁
蜘
170
寥
滕
毙
as
涝
谛
all
郝
痹
溺
汾
脐
馅
蠢
珀
腌
扼
敕
莓
峦
铬
谍
炬
龚
麒
睦
磺
吁
掺
烁
靶
or
圃
饵
褶
娟
滔
挨
android
褒
胱
cpu
晖
脖
垢
抉
冉
茧
from
渲
癫
125
de
悼
嫂
瞒
纶
肘
炖
瀚
皋
姊
颐
1600
俏
颊
gps
讶
札
奕
磊
镖
遐
眺
腑
boss
琦
蚊
窜
渍
嗯
102
1926
touch
夯
1300
笙
蘑
翡
碘
卯
啼
靓
辍
莺
躬
猿
杞
眩
虔
凋
遁
泾
岔
羟
弛
娄
茸
皓
峙
逅
邂
苇
楹
蹲
拢
甄
鳃
104
邯
捆
勺
450
酉
荚
唑
臻
辗
绰
徊
榨
苛
赦
盔
壬
恍
缉
2020
熨
7000
澡
桨
匣
兢
106
驭
x1
镍
孰
绮
馏
蝇
佼
鲸
128
哎
裳
蜕
嚼
嘻
web
庇
绢
倩
钵
ii
恪
帷
莆
柠
藕
砾
115
绊
喙
坂
徘
荀
瞧
蛾
1925
晦
ph
mm
铎
107
紊
锚
酪
稷
聋
闵
熹
冕
诫
珑
曦
篷
320
迥
蘖
胤
103
檬
瑾
钳
遏
辄
嬉
隅
ps
秃
112
帛
聆
芥
诬
1100
挟
宕
2018
鹊
琶
膛
mv
兀
gb
懿
碾
叮
863
蠕
譬
缮
烽
妍
榕
260
1920
邃
焙
倘
210
戌
茹
豚
晾
浒
玺
醚
祐
炽
this
缪
凛
噩
溅
毋
槛
ei
are
嫡
蝠
娴
稣
禀
壑
殆
敖
cm
ios
倭
挛
侃
蚌
咀
盎
殉
岑
浚
谬
狡
1924
癸
280
逛
耽
俺
璨
巳
茜
郸
蒴
琵
we
230
叩
泸
塾
one
稼
reg
侮
锂
曙
3500
up
薰
婿
惶
拭
篱
恬
淌
烙
袜
徵
慷
夭
噶
莘
135
鸳
殡
蚂
1900
憎
喃
佚
龛
潢
烃
at
岱
潺
109
衢
璀
5cm
1400
鹭
揣
痢
know
厮
氓
怠
no
nbsp
痘
硒
镌
乍
咯
惬
not
桦
骇
枉
蜗
睾
淇
耘
娓
弼
鳌
嗅
gdp
狙
箫
朦
椰
胥
丐
陂
唾
鳄
柚
谒
journal
戍
1912
刁
鸾
缭
骸
铣
酋
蝎
掏
耦
怯
娲
拇
汹
胧
疤
118
硼
恕
哗
眶
痫
凳
鲨
擢
歹
樵
瘠
app
茗
翟
黯
蜒
壹
殇
伶
辙
an
瑕
町
孚
痉
铵
搁
漾
戟
镰
鸯
猩
190
蔷
缤
叭
垩
113
曳
usb
奚
毓
ibm
颓
汐
靴
china
傣
尬
濮
赂
媛
懦
扦
111
韬
like
戳
java
雯
114
蜿
116
1923
笺
裘
尴
侗
mba
3g
钨
1919
苓
1922
寰
蛊
扳
搓
涟
睫
淬
5mm
123
ve
121
赈
恺
瞎
蝙
1921
枸
萱
颚
憩
秽
秸
拷
阑
貂
粱
煲
隘
暧
惕
沽
time
菠
1911
趟
磋
偕
涕
邸
so
踞
惫
122
阪
鞠
饺
汞
颍
氰
屹
蛟
跻
哟
have
126
臼
熄
绛
弩
褪
117
渎
亟
匮
撇
internet
霆
攒
舵
扛
彤
nba
蛤
婢
偃
胫
姥
睑
love
iso
pk
诙
what
诲
锭
悚
扒
洱
劾
惰
篡
瓯
徇
铀
骋
flash
1918
out
筷
渚
踵
俨
ceo
榻
糜
捻
釜
哩
萤
270
蛹
隽
垮
鸠
鸥
漕
瑙
礴
憧
殴
潼
悯
砺
拽
钗
ct
酣
镂
mp3
膺
楞
竺
迂
嫣
忱
cad
哄
疣
鹦
1700
枭
憬
疱
will
婪
沮
1914
怅
119
筱
扉
瞰
linux
旌
蔑
铠
瀛
vip
琥
750
127
懵
谴
捍
蟾
漩
1913
拣
汴
university
刨
叱
曜
妞
澎
镑
翎
瞪
sh
倔
芍
璞
瓮
驹
芷
寐
擂
丕
蟠
诃
悸
亘
溴
宸
廿
恃
棣
1917
荼
筠
羚
慑
唉
纣
麼
蹦
锄
145
international
124
淆
甙
132
蚜
椿
禺
绯
冗
168
葩
厝
媲
蒿
痪
650
菁
炊
wifi
俑
new
讥
min
桀
祺
129
吡
迩
do
john
箔
皿
缎
萦
剃
霓
酝
mg
诰
茉
just
get
飙
湍
蜥
箕
蘸
550
4500
柬
韭
溥
but
熠
鹉
咐
剌
138
悖
瞿
槟
娩
闾
pvc
遴
咫
20000
孺
彷
茬
211
蓟
li
if
憨
袅
佬
炯
erp
1910
啶
昙
蚩
136
痔
蕨
瓢
夔
毡
赃
鳖
沅
wang
go
饷
165
臧
掖
褚
羹
ic
勐
tv
谚
畦
眨
贻
攸
涎
弑
咎
铂
瑛
1905
矗
虱
more
133
秤
谟
漱
俸
夙
1915
br
game
雉
螨
恣
斛
175
谙
隍
131
奄
480
yy
1916
壕
髻
155
鄱
嘶
磕
濡
赘
荞
讹
猕
痞
鬓
铮
腱
幡
榭
爻
5m
涓
晤
咕
惭
钼
匕
ok
撮
庾
笠
窘
癖
365
垛
窒
畲
甬
彗
缨
湮
寮
et
衅
谪
156
绫
9000
152
兖
疽
磐
380
菏
沱
骁
嫔
盂
娆
钊
蟒
忏
谤
148
137
server
2200
晟
ng
15000
google
痈
耆
谧
簪
134
ml
疟
扈
脍
琛
咋
胄
142
144
葆
轶
桢
973
攘
was
邕
拧
茯
205
摒
1908
intel
傀
祚
嘟
帼
1906
wto
筵
when
馒
疚
璇
砧
merge
槃
microsoft
犷
exe
腓
煜
弋
疸
濑
310
201
麝
嗟
忻
愣
facebook
斓
吝
咧
矾
愫
151
158
漪
珂
rna
逞
146
206
糠
璐
藓
昕
妩
屌
疵
excel
嘘
he
plc
袂
2400
139
稃
剁
侏
掐
猾
匍
2800
坳
黜
邺
闫
猥
湃
斟
癣
1904
185
匐
粳
sql
330
141
cp
1909
叟
俾
儡
莒
12000
骥
跤
耙
矜
翱
zhang
ms
赡
1907
浣
栾
拈
science
420
螟
aaa
桧
坍
睢
趴
id
伎
2100
婺
霹
痊
膊
眯
豌
202
驮
骈
850
iii
嶂
淞
143
腮
髅
炀
啄
亳
麾
147
筐
叨
徨
跷
ac
楂
郴
绶
hp
羔
xp
ieee
咤
now
there
靳
they
屎
雳
瘘
蹬
2300
惮
acid
涪
阖
煽
蹊
225
栉
153
俟
涸
辫
锢
佟
176
皎
cctv
啮
钰
螂
dc
啪
绷
204
闰
畿
2d
覃
2600
惘
贰
154
碉
卞
酐
枷
葺
芪
207
蕙
192
咚
籁
pro
钴
162
冽
玮
骷
啃
焖
猝
榈
滁
拮
跗
讷
蝗
208
蠡
world
烨
been
hd
gmp
256
脯
歙
泠
刍
掳
pe
his
僳
340
1902
螯
胳
髦
粽
戾
祜
178
186
岷
懋
馥
昵
踊
湄
郢
斡
迢
ce
photoshop
嗪
about
裨
1903
羧
膈
翊
lcd
鲫
163
螃
沓
疝
笈
ktv
榔
157
诘
autocad
195
颉
蛀
鸢
焯
囧
make
梆
npc
潞
戛
see
system
149
佗
艮
chinese
let
霾
鬟
215
net
玖
1898
腭
喔
172
罔
佥
粑
visual
舷
泯
m2
198
has
203
sd
泓
炜
谗
烬
跆
rpg
傩
飓
浔
钤
惚
胭
踝
镯
ep
221
臆
196
蜚
揪
觞
皈
dj
183
api
迸
匝
筏
167
醴
黍
洮
滦
侬
甾
290
way
3200
188
diy
2cm
com
澧
阈
袱
迤
衮
166
濂
娑
砥
砷
铨
缜
箴
30000
逵
猖
159
蛰
箍
侥
2mm
搂
纨
裱
枋
嫦
敝
挝
贲
潦
235
撩
惺
铰
f1
忒
咆
哆
莅
164
炕
抨
涿
龈
猷
got
b1
182
2m
212
遒
缥
vs
捂
俐
la
瘙
搐
牍
isbn
馍
our
痿
袤
峥
184
栎
罹
燎
喵
209
1901
璜
飒
蔼
珞
澹
奘
岖
芡
簸
杵
甥
骊
216
悴
173
惆
5mg
殃
1895
呃
161
5g
祗
3600
髋
169
liu
who
幔
down
榛
犊
霁
芮
520
牒
佰
her
狈
薨
co
吩
鳝
嵘
濠
呤
纫
3mm
檄
214
浜
370
189
缙
缢
煦
蓦
揖
拴
缈
218
褥
铿
312
燮
life
锵
174
荥
187
忿
4s
僖
婶
171
chen
芾
镐
痣
research
眈
460
祇
邈
翳
碣
遨
鳗
诂
never
岫
焘
3cm
co2
茱
tcp
only
255
gsm
say
洵
晁
right
噢
she
over
偈
旖
david
181
232
蚓
柘
珐
遽
岌
桅
213
唔
222
鄞
雹
michael
驸
苻
恻
鬃
玑
磬
崂
304
祉
荤
淼
560
264
肱
呗
pp
b2
骡
囱
10cm
佞
back
1890
226
耒
伫
嚷
粼
aa
歆
佃
旎
惋
殁
杳
their
阡
red
畈
蔺
os
177
map
巽
cbd
昱
啰
吠
179
199
嗔
涮
238
奂
1896
撷
301
袒
720
爰
捶
赭
蜓
姗
蔻
垠
193
gis
噻
ab
峒
皙
want
245
憔
帚
office
xx
杷
蟆
iso14001
觐
钒
岙
2700
1899
栀
幄
啧
癜
擀
轲
铆
them
讴
樽
霏
mtv
肮
枳
骞
诧
瘢
虬
拗
play
219
蕲
316
茁
唆
technology
word
沭
毂
蛎
芊
銮
瞥
呱
223
羿
吒
傥
髯
濯
蜻
皴
802
430
邳
燧
1860
獭
垭
祟
217
虢
how
枇
abs
鹫
194
颞
1894
333
皑
脲
197
舔
魇
霭
org
坨
郧
baby
椽
舫
228
oh
305
荠
琊
溟
1897
煨
265
谯
粲
罂
gonna
屉
佯
郦
亵
诽
芩
嵇
蚤
哒
315
啬
ain
嚎
玥
twitter
191
隼
唢
铛
cause
壅
藜
won
吱
rom
楣
璟
锆
憋
罡
al
咙
1850
腈
oslash
job
233
廪
堑
into
诩
b2c
溧
鹑
讫
哌
铢
蜴
1ml
稹
噜
镉
224
愕
桁
晔
琰
陲
疙
667
崮
need
540
8mm
html
颛
through
asp
桡
钜
580
take
谑
仞
咦
珪
揍
鱿
阉
3800
瘩
410
槌
滓
茴
tft
泮
涣
atm
pci
柞
渥
飨
孪
沔
谲
桉
vcd
慵
318
oem
other
俚
paul
跖
纭
恙
which
fi
佘
236
荃
咄
鞅
叁
james
恽
m3
253
炔
萘
钺
6500
1880
ccd
楫
塬
钡
琮
苄
950
325
275
1g
day
o2o
960
music
骰
偎
粕
amd
咔
鹄
瓒
阆
捅
嬴
adobe
箨
name
390
680
640
氦
倜
b2b
觊
xml
婕
229
jar
锑
撬
chem
掰
嗷
5500
1cm
饯
蓓
234
good
鼬
spa
佤
5a
ss
蚯
挞
臾
where
atp
227
嶙
幂
饬
闱
live
high
煅
嘧
1mm
蹭
sun
abc
瞭
顼
箐
here
徉
231
骜
302
嗨
邛
庑
柩
饕
俎
4mm
15g
嘌
50000
颏
cssci
椁
崧
锉
籼
1870
狞
弁
6mm
羯
踹
糅
248
1840
砼
263
嫖
tmp
252
mac
285
豉
啉
榷
嘈
en
俪
痂
308
inf
630
儋
4a
芎
ai
man
繇
1889
bt
239
meta
蹇
242
530
诋
bbc
煸
峋
淙
324
management
1885
泱
徜
crm
4cm
free
汩
纥
246
蝼
囿
uv
暹
谆
蹂
鞣
3c
mr
螳
cs
馗
幺
鞑
贽
268
istp
243
漯
237
牦
淖
engineering
dr
囤
than
gprs
sp
440
晗
1888
258
忡
懊
呋
埂
pcb
307
first
321
robert
鲈
sup2
阕
3m
幌
cg
303
鳅
勰
find
8cm
萸
剽
蚝
wi
绔
pdf
1250
262
php
辇
10mg
use
ie
麋
1884
陟
宥
oracle
锺
喽
620
1892
1893
淅
熵
荨
247
忤
american
266
seo
轭
嗦
荪
also
骠
鹘
p2p
4g
聿
绾
诶
985
怆
244
喋
恸
湟
睨
翦
fe
蜈
1875
褂
娼
1886
羸
觎
470
瘁
306
蚣
呻
241
1882
昶
谶
猬
荻
school
286
酗
unit
肄
躏
膑
288
2g
嗡
273
iv
cam
510
庠
崽
254
搪
pcr
胯
309
铉
峤
郯
藐
舂
come
蓼
some
薏
窿
羣
氽
徕
冼
rs
阂
欤
殒
窈
脘
780
篝
yang
1861
3300
iso9000
麸
砭
max
砰
骶
豺
lg
窠
獒
think
腴
苕
any
its
缇
骅
劭
college
卅
ups
揆
垅
na
6cm
琏
镗
苜
胛
1881
black
珏
吮
抠
搔
276
rock
251
槎
4200
323
掣
pet
1887
ap
琨
餮
375
舛
give
si
痤
us
311
278
埭
english
peter
1891
820
胪
喹
妲
婀
帙
10g
oa
7500
箩
灏
霎
logo
袄
dsp
bl
镭
蓿
power
long
墉
too
嵊
1862
girl
堇
king
蟋
610
叽
249
钎
30cm
fm
録
group
1883
郓
瘴
vol
丶
呦
邬
頫
272
馁
hiv
鄢
257
1876
ordm
蛭
322
愍
锲
槿
珈
best
4800
mri
1080
fda
10mm
261
nt
660
super
1m
center
ui
335
蜃
298
拎
鎏
裟
沏
np
螭
7mm
觑
墒
捺
轸
micro
榫
based
319
怔
ram
618
昀
even
泷
1864
ca
凫
唠
狰
鲛
氐
呛
绀
碛
茏
盅
蟀
洙
off
訇
蠹
auml
dos
20cm
267
棂
18000
蚴
篾
two
靛
暄
show
1868
泞
cdma
mark
vc
洄
赓
麽
25000
篓
孑
860
烩
980
design
颢
钣
var
髂
蹴
wanna
筮
蝌
醮
home
菖
fun
cmos
獗
friends
business
岘
570
鼐
1865
姣
national
1874
蟑
袈
葶
掬
most
vga
emba
躇
30g
鹌
city
踌
282
钹
蚪
颧
001
13000
鹳
274
km
345
1050
stop
328
then
鲲
驷
潴
295
386
焱
稔
悌
mpeg
st
suv
vista
a1
vi
283
help
basic
唏
11000
苒
蹙
house
heart
ouml
281
氩
bug
mobile
宓
service
dll
綦
苎
application
疃
methyl
攫
rfid
100g
287
掾
1871
徭
490
舀
逶
嗤
760
0m
ge
1872
people
hr
蜷
茔
512
疳
迳
罄
瓠
100mg
讪
psp
av
傈
ppp
杲
灞
氲
鬲
獠
柒
骧
1848
away
william
326
搀
珩
绦
1879
嚏
710
镛
喱
倏
馋
茭
擘
斫
284
1mg
怂
hdmi
唧
犍
谩
赊
317
271
wu
鬻
禛
15cm
259
840
feel
485
圻
10m
蹶
5kg
1877
1873
缄
瘿
黠
甑
矸
嘀
il
蹼
jack
lee
269
叼
di
313
旻
auc
502
1350
鹜
289
fc
稗
336
999
association
many
293
雒
george
td
赉
style
馔
颦
ul
ld50
1867
颔
掇
1863
each
赅
桎
inc
痧
dv
谄
孛
笆
鲶
铳
3100
mc
tell
4m
blue
327
299
bios
龋
385
盱
笏
2030
窕
苴
314
big
1866
296
萋
355
辘
琬
cu
梏
much
蚧
3400
1280
镳
24h
own
670
studio
瞅
keep
6g
ppt
conference
around
information
睬
1878
class
偌
鲵
惦
1830
蜍
mp4
why
靼
1851
332
阗
菟
黝
1650
control
挈
嵴
剡
358
楸
dha
氤
m1
vr
呎
珲
5ml
馄
滂
338
蹉
蓑
锷
297
279
啜
1644
sm
婵
well
鬣
7cm
钿
bbs
晌
蛆
隗
酞
枞
352
work
always
9g
戬
獾
镕
star
easy
饨
娣
缰
邾
334
8m
ni
鹗
277
425
end
had
嗒
苋
薮
棹
type
richard
880
6m
拄
air
埕
勖
鹞
殚
鲢
pop
a4
1750
ftp
16000
啖
ad
沣
501
靥
葭
诿
htc
鸪
007
饴
t1
疖
抟
睽
770
access
tcl
稞
吋
谀
澍
杈
妤
sata
part
峄
systems
漉
40000
ever
気
368
咲
qs
ta
璘
ltd
mol
media
萜
僭
朐
742
1855
cc
圜
癞
藿
555
珉
isp
set
1450
陉
him
僮
292
膻
1853
薹
810
汊
still
锗
昉
pvp
猗
http
1859
3700
strong
3a
锶
real
跛
art
1869
331
1368
嘹
337
瓤
402
衄
1856
1820
1150
matlab
豕
吆
腆
thomas
a2
294
le
366
using
356
bb
喆
smith
different
莴
401
谌
ci
珙
疥
kw
鲑
405
玷
蛔
砀
361
zh
nasa
materials
329
nature
1h
谔
睥
ch
20mg
2mg
du
mail
data
every
蹑
诒
逋
372
while
姝
刈
婧
going
喳
镞
铌
291
712
辎
鹧
檩
740
扪
10ml
霰
ar
裆
ol
嬷
0mm
ufo
charles
20mm
tvb
apple
刎
iec
project
sbs
嵋
342
690
悱
920
嘤
jean
篁
荸
瞑
殓
搽
50mg
343
橇
include
eva
雎
弭
獐
haccp
恿
video
cf
vpn
society
眦
730
铐
song
尕
捎
诟
institute
痨
cn
369
笞
756
version
des
sns
趺
590
award
唬
苣
css
lte
xu
fbi
啾
瘪
垸
357
橹
after
濛
曷
level
樾
very
汨
仟
姒
1858
again
怦
荏
tom
诤
苡
吭
830
dm
before
406
崆
氡
young
脩
lan
胝
钏
3ds
cr
arm
pos
night
屐
395
忐
彧
拚
鏖
344
100ml
525
孳
1024
yu
忑
384
邝
穰
403
摈
庖
351
鸵
398
hello
矽
354
鲟
said
381
768
発
762
sap
1854
msn
菅
book
353
true
339
javascript
348
2900
圪
蹋
衾
簋
璎
367
噎
911
嬗
346
肼
362
359
跎
滟
little
4300
701
戦
嵬
look
仝
phys
club
惇
纾
times
14000
炁
382
xyz
number
ak
mind
huang
闳
骐
秣
眙
谘
碓
iso9002
疔
412
恂
am
top
master
鳕
green
鸱
int
爨
镊
404
were
4600
em
better
钯
圮
楽
堀
1852
408
sat
1857
378
422
膘
705
噗
347
start
486
锹
505
杼
酊
same
376
white
挎
箸
郗
垌
sa
溏
martin
蔫
偻
364
妫
飚
625
601
辔
濬
666
ds
瑄
621
觚
5600
nhk
415
express
铍
bit
跚
9mm
翕
煊
these
50mm
gpu
b6
hip
耄
铋
篦
zhou
阇
骛
nvidia
莪
吲
youtube
唁
870
箧
503
tm
8500
really
珅
潋
迨
哽
without
砦
model
缗
hey
謇
呸
mrna
垓
糍
park
wap
璠
妣
狎
攥
396
闇
york
蛉
瑁
joe
腼
蹒
great
review
200mg
chris
www
嶷
online
莠
沤
哚
475
遑
v1
such
跺
膦
蹿
unix
hard
40cm
50cm
nothing
郫
zhao
玳
ma
boy
埚
url
432
network
aaaa
衿
371
try
醪
full
挹
raid
bg
绡
汜
digital
mb
c1
坩
ccc
旃
5200
607
itunes
powerpoint
鸨
between
407
翈
1842
1844
435
838
抡
chemistry
team
party
die
晞
place
care
盥
藁
蓖
383
cv
臊
made
state
465
羰
388
1620
sas
楝
噱
ji
饽
苌
soho
褓
佶
mp
581
years
1260
1680
hop
稜
瞠
仡
25mm
605
423
341
363
374
627
text
development
518
伉
襁
ug
change
713
涞
1849
蜇
抿
瑗
pda
418
un
line
958
孱
懑
416
von
373
淦
赝
core
dns
747
427
387
would
ipo
醌
551
缫
蠲
alt
嚓
鲷
湫
捋
1845
咩
裏
avi
犒
2050
墀
yeah
god
445
lesson
硐
蔸
399
758
pu
computer
456
钽
1847
麂
brown
store
蒡
鼹
绻
1821
錾
仃
515
篙
蕤
589
applied
737
930
c3
1841
铤
billboard
apec
槁
牖
螈
mary
俦
family
笄
color
啻
対
jsp
郤
next
iq
645
506
hbv
闼
a3
349
value
413
igg
411
426
醺
赍
檗
usa
裾
head
噫
掸
mike
箓
usb2
things
5800
5v
o2
妪
乂
蝈
砻
胍
220v
392
cba
397
535
idc
analysis
25mg
蜱
ti
2h
聃
雠
碚
椤
缯
昴
890
缱
祎
der
缬
ex
508
铙
cnc
pentium
孀
533
advanced
mpa
yl
笳
蘇
愆
685
榉
old
氙
call
alex
燹
撂
菽
583
箬
蛄
瘸
嬛
495
橐
could
60000
something
纡
刽
辂
hong
377
law
蒯
邨
1846
1550
r2
1837
赀
player
414
跸
phone
邙
hold
rgb
421
henry
2025
黟
409
磴
1815
mode
1843
闿
504
letters
1780
428
垟
389
t2
london
528
jpeg
嵯
钚
steve
跄
30min
527
潸
h2
35000
崴
eric
379
run
three
rf
left
455
恁
open
楮
556
bc
476
腧
458
plus
1812
1839
胨
b12
4d
芫
america
est
dream
碴
隰
杓
md
ya
global
436
15mm
2ml
貉
欹
sup3
侑
ea
鳜
910
ben
铄
椴
昇
醍
1020
798
midi
肓
features
lc
brian
akb48
缂
1835
test
铡
light
978
s1
1799
key
sim
1795
simple
energy
蹠
徂
west
725
body
豢
424
face
蒽
lin
805
1120
479
菡
bill
433
衲
阚
believe
brt
pa
last
芗
hu
sam
wei
adsl
602
mk
痍
玠
1832
523
晷
604
jj
468
淝
1560
鄯
ck
473
糗
耨
榧
394
940
eq
498
used
sc
胴
c2
蕈
screen
镬
635
鼾
431
education
wwe
摭
鸮
cl
5400
fpga
恚
419
実
asia
534
552
砝
100mm
pid
741
珣
under
603
寤
埙
mbc
tc
xxx
didn
478
mn
p1
锏
simon
ansi
438
hi
615
喟
蘅
骺
cell
捭
study
586
393
莜
should
xi
缶
f2
games
0g
1760
mini
johnson
jones
yes
锟
1825
叵
cm3
炷
1580
stay
675
another
6800
鲧
1736
ps2
胼
517
査
岬
2019
1640
rose
鹂
牯
珥
entertainment
448
und
496
莼
software
970
邠
5300
h1n1
488
da
眇
卟
変
20m
may
417
lady
galaxy
4100
惴
1789
846
801
渑
907
put
蚱
gone
606
t3
company
632
454
516
998
548
391
4700
瞌
ide
瘰
7200
佝
together
street
旸
626
衽
郅
奁
731
30mg
mvp
1370
60cm
12cm
魑
1828
628
everything
612
san
937
缛
2gb
lu
angel
20ml
576
颙
sony
790
press
镫
hall
簌
beautiful
豇
711
453
pm
姹
thing
442
邋
alpha
leave
暝
441
30mm
chapter
507
100000
526
directx
511
9cm
words
釐
619
洹
444
frank
咿
eyes
483
俳
522
蜊
醐
541
water
499
聩
non
bob
坻
532
757
545
毽
oo
喾
alone
scott
744
辋
river
zhu
倌
媪
蛳
滹
哙
nc
20g
阊
gs
queen
趸
1130
1645
祢
4mg
1814
girls
544
e1
籀
1210
1573
徼
ipv6
訾
髁
1a
jackson
砜
1836
les
4gb
撸
瓘
1790
缁
镓
sars
eps
519
sod
bp
1810
year
縻
sound
617
菀
1125
598
酢
桠
466
emc
撵
怏
429
1838
ready
渌
546
taylor
452
news
1180
568
2a
af
538
list
hot
1380
etc
1796
摞
mo
槲
levels
ht
浠
诜
魉
韫
daniel
亓
盤
pv
瑭
魍
1831
emi
襞
social
dreamweaver
爿
kbs
565
613
990
浃
樯
jb
讵
揩
physics
耋
帏
lng
崃
bs
457
enough
shy
521
596
ec
451
鸩
遢
turn
臃
available
4400
585
粿
1010
禳
hand
439
536
桫
link
side
earth
mx
髹
7m
482
诳
472
1140
707
622
wcdma
513
must
492
462
踉
40mg
948
cmax
郃
1320
v2
542
email
493
嗖
sup
讧
cnn
446
碁
17000
湎
30m
529
653
531
575
阏
sr
united
pm2
mt
媾
443
様
aac
806
哔
舸
vb
611
曩
821
gre
gl
cisco
忝
峁
掂
464
葳
487
437
including
715
鄄
558
both
谵
463
jim
608
m4
5100
彊
锴
war
郜
money
481
葖
1824
tnt
蓇
瓴
鳟
橼
5s
louis
434
鲇
邗
el
犄
秭
3900
records
view
chemical
1001
1mol
dance
668
dl
槭
缵
que
624
rt
1823
1805
005
1826
巯
sgs
user
龊
qc
狍
island
language
space
擞
saint
2n
pt
share
瞽
hotel
christian
557
栲
撅
2b
1801
447
1822
瑀
smt
hk
1834
戢
825
50ml
朓
逖
general
椹
nm
洺
cae
484
艏
wma
zn
苁
single
599
c4
滘
777
铧
侪
ocirc
1kg
684
豳
skf
12mm
489
hla
竦
貔
ld
being
562
圄
van
gm
688
655
special
呷
edition
1s
jiang
131108
514
1792
ncaa
1833
旄
遛
jr
program
656
467
ing
901
755
509
芈
kong
rp
砣
桷
audio
icp
happy
龌
done
疬
japan
ts
mit
p2
524
looking
miss
缟
582
洌
35mm
494
grand
跏
those
joseph
ctrl
547
1040
686
蝮
lp
cod
菰
sio2
txt
1770
1060
帑
767
north
fcc
怙
ester
718
story
edi
634
1360
豸
1660
lh
雩
1230
magic
誊
549
臬
4k
op
1662
651
镣
箇
616
title
sciences
25cm
踱
s2
t4
钍
648
100m
543
588
苫
554
蝽
r1
3mg
amino
1776
浯
609
772
ca2
vlan
469
500mg
単
road
亶
636
metal
device
40mm
囹
穑
1730
佻
1818
绌
12g
537
诔
pve
autodesk
477
v8
ray
gp
span
gc
size
716
鹬
ssl
crt
1670
925
髌
pn
1127
702
658
services
support
1802
蒌
coming
experience
nbc
鳏
631
638
ace
0cm
ems
9001
殄
yen
soc
ethyl
怛
tf
筌
刳
studies
theory
1030
578
radio
翮
卍
畹
471
704
because
1610
箜
save
燔
赳
553
1809
篌
窨
翥
785
炅
钕
lett
803
1827
academy
ed
629
sf
pr
hill
explorer
future
food
莳
662
567
dcs
忖
戡
1086
1190
1829
bad
es
15m
order
spring
沢
south
497
025
move
狒
1630
圉
abb
449
learn
l0
d2
5d
wav
琯
邰
cis
quality
odm
926
acta
root
smart
1661
苾
cm2
photos
l2
via
sk
犸
623
邡
feeling
572
郏
襦
python
bmw
888
guo
epa
williams
沆
813
bot
read
function
wilson
1723
enterprise
玟
50hz
s26
fire
engineer
tony
1819
濉
rh
洎
莨
氘
pb
咛
1720
佺
1460
815
cbs
腩
beta
鳔
1735
yan
1gb
x2
剜
秕
牝
芨
din
関
del
sms
649
pal
1369
far
maya
654
拊
812
595
竑
50m
圹
close
eos
颡
1420
6300
1816
wrong
break
573
765
file
friend
002
摺
683
nx
沩
蜉
please
1170
ro
6400
筚
nick
acm
愔
ati
point
肟
766
俶
fast
ata
d1
678
geforce
1710
yahoo
堃
绉
mysql
1793
奭
gap
iso14000
uk
astm
h2o
n2
film
method
1804
罅
so2
嗳
665
adam
uc
蜢
1806
1775
photo
疠
474
image
200mm
sure
561
帔
髡
643
黥
1813
proceedings
褛
柰
beyond
royal
else
eda
808
ddr
gif
鏊
l1
痼
571
waiting
堞
code
652
rss
learning
嗝
461
beijing
娉
566
577
708
1520
689
kevin
human
661
539
875
1811
ssci
6600
戕
587
735
3s
铱
耜
觥
867
镒
584
呓
1522
904
case
1101
491
1080p
history
蒹
栱
im
564
f4
卮
琚
salt
jason
rohs
12v
hydroxy
逦
modem
font
酩
蓍
cry
65536
health
虺
1798
tonight
small
谠
1570
1220
jane
against
597
751
459
bd
鼋
焗
udp
process
1070
1807
children
8g
eb
62mm
22000
add
1440
褴
rm
25g
ccedil
706
714
5l
砒
赧
蛏
709
蚬
1530
瘕
5h
559
jay
iga
020
fall
scsi
顗
isdn
death
563
today
愠
dvi
勣
wait
1642
飕
徳
滢
琇
鳙
db
瞟
尻
force
400mg
澶
荽
舐
arts
ha
east
lost
effects
1628
album
harry
633
dark
public
2250
soul
826
659
exo
侂
733
se
黼
icu
4h
market
潟
7800
绂
瘗
ngc
1794
crazy
蓥
竽
濞
igm
scdma
6200
cb
835
699
骖
偁
bmp
809
1270
oled
応
1160
1621
锜
g3
ova
cheng
614
匏
thinkpad
赑
fps
create
kim
讦
1480
诨
1540
rev
1v1
罘
fans
巖
1740
ag
嫘
1649
ps3
908
颀
g1
703
岿
v3
虻
936
fl
c2c
罴
environmental
paris
594
hear
囗
jump
communications
溆
talk
噤
824
骝
003
咂
695
728
e2
nec
iptv
1797
kelly
500ml
锛
721
rc
1808
ldl
1240
槊
radeon
676
啕
tang
plant
50g
驽
professional
凇
698
s36
lord
search
alan
籴
pd
1403
硖
1791
816
1636
3h
gsp
811
sky
1632
铯
christmas
怿
笥
matter
574
噙
倨
effect
647
779
1803
657
sorry
awards
igbt
pwm
坭
醅
sos
976
592
滏
10min
682
cs3
悻
did
mater
579
聒
1724
feng
low
mhz
836
722
枥
726
昺
bank
memory
rap
975
663
ips
酆
2kg
787
簟
睇
轫
溱
骢
榘
642
珺
跹
677
series
nlp
raquo
蚶
stone
1672
1817
1646
827
驺
ko
security
perfect
alexander
746
tt
check
804
饧
15mg
sir
moon
doesn
591
inside
tim
672
641
噼
儆
1w
氚
646
哧
1783
旒
鸬
1648
夥
ev
1688
score
standard
玦
723
貅
揄
戗
fx
938
璩
fu
1654
剐
010
cpi
垴
蘼
hz
1521
1067
727
ah
lv
916
裒
639
han
躅
1715
唳
form
second
嗑
荦
674
霈
jin
缦
啭
pi
1788
rx
隈
gao
sdk
zheng
悫
745
href
593
ngo
multi
d3
彀
637
1276
悭
found
jis
5700
焓
1234
80cm
磔
aim
1778
蓊
act
569
xiao
郾
717
786
return
5min
1582
etf
1590
action
1625
sarah
yourself
枧
鹚
10kg
80000
検
775
818
stephen
gui
屃
644
9500
v6
馑
wlan
hs
2048
area
1616
andrew
8226
6mg
1567
1763
1470
嗲
pps
铟
rca
pierre
687
null
manager
738
sdh
828
薤
60g
300mg
jun
1685
favorite
making
playing
summer
754
692
涔
樗
664
忾
収
绺
945
h2s
bis
self
300mm
烊
opengl
912
acute
螫
黩
996
magazine
edward
su
elisa
hdl
cyp3a4
鞫
foundation
alice
ddr3
915
923
tbs
andy
field
date
transactions
limited
during
1126
鲠
1057
fan
嘭
缣
845
681
rw
mean
1566
become
economic
852
johnny
蒺
unique
黒
tu
boys
1330
885
getting
cj
1072
nh
ne
band
cool
724
771
骘
氖
content
842
镝
俅
谮
te
9600
drive
phenyl
1275
屦
cao
menu
823
摁
氪
蘧
active
sb
appl
988
1622
伝
1725
zero
1008
3kg
腠
叡
hit
鲂
mi
0kg
748
lite
enjoy
local
789
続
1506
seen
s3
1765
european
讣
gold
1279
736
965
pl
button
耷
1430
986
763
toefl
燊
鸷
jimmy
dota
955
861
猊
732
xbox
days
dan
673
833
囡
崤
4c
economics
23000
agent
html5
points
ryan
shi
砬
湜
reading
918
mine
adc
917
1592
1781
翚
峯
909
once
exchange
choose
current
symbian
ts16949
dave
machine
鲎
qos
蕖
1785
9m
cia
until
cs4
759
f3
903
24000
968
8mg
lewis
鹈
凼
snh48
866
泫
荑
黻
牂
1722
鄣
篑
ho
1110
1784
髭
陬
寔
dt
shanghai
疴
邽
987
45000
1042
喏
彖
sl
saas
814
28000
a5
彘
赟
819
foxpro
shit
822
盹
诮
鸫
per
does
150mm
products
camp
select
capital
茕
corporation
26000
铖
954
dd
闩
string
page
ba
671
読
782
鄜
漈
盍
dlp
729
甭
愎
outlook
wii
ue
1787
festival
communication
channel
gary
1755
1774
8600
copy
150mg
魃
dragon
1056
c5
炆
track
hdpe
liang
鍊
1800mhz
1619
蛐
995
21000
薜
win
1394
1786
rain
楯
table
鲀
逡
itu
applications
mmorpg
嘞
s7
696
侔
1069
觇
lbs
0mg
car
wave
糸
踮
狷
1552
1627
latest
step
886
761
菘
783
寳
esp
扃
865
jazz
k1
fine
child
kind
anna
60mg
997
maria
nk
792
raw
late
soa
905
cai
ttl
delphi
prince
1340
禊
synthesis
喑
rmb
miller
patrick
933
running
50kg
1398
ast
752
location
dead
塍
chateau
allows
forget
tg
921
栝
5w
kiss
1690
691
arthur
瓿
index
csa
rmvb
msc
廨
cas
known
h1
tj
j2ee
asian
841
1227
g20
cross
cos
ntilde
719
貘
dnf
california
france
modern
pacific
769
1066
turbo
753
795
669
1764
868
馕
僰
union
1772
2150
1063
哏
double
fight
858
math
bo
瑷
men
sea
6700
sem
697
疎
882
note
qi
uml
902
1637
tp
1290
1085
776
蝣
怵
阃
dps
1687
弢
镲
hcl
al2o3
js
auto
螅
1683
v5
culture
935
吖
edge
碲
voice
1007
bridge
855
008
夼
茌
battle
嗬
靺
dp
ae
1090
895
1012
1162
bi
778
髀
1575
pcm
15min
1598
铊
secret
739
200m
6h
matt
谡
card
mic
癔
ecu
16mm
984
镠
5km
dhcp
1753
巻
秾
living
gn
1643
framework
菪
679
赜
1782
four
铈
1777
british
shell
santa
yuan
20ma
fly
927
qu
nds
qaq
bar
髙
arp
1667
1773
693
main
鲳
1510
1002
2022
cdna
box
珰
100km
004
畋
bring
泅
959
hpv
makes
cmv
鲅
tmd
1762
854
泚
ghost
short
mcu
1768
cat
963
1757
1206
1207
puzzle
793
central
859
飏
walter
60hz
anderson
1727
thought
屍
仨
864
molecular
856
dong
financial
1728
surface
g2
mf
葚
叻
solidworks
res
speed
1195
咻
ascii
1404
784
jeff
衩
1371
land
biology
1655
郄
otc
sio
1310
1605
蹩
mems
1618
m16
complete
industrial
acs
1603
kids
tour
u2
allen
1756
743
嬖
踽
davis
柽
鞨
65279
7600
30ml
957
0l
734
p450
956
ir
麴
500mm
casio
1038
roger
library
015
1652
薙
within
hands
874
ntsc
钇
whole
jq
氵
垆
post
sweet
wall
898
cs5
feo
9800
cms
1390
since
medical
犟
1492
罍
stand
justin
lake
i5
1729
bell
ruby
important
bout
images
lab
962
1759
rj
cache
nb
production
経
807
1771
doing
粜
tnf
ws
guide
bim
events
1626
1016
焜
performance
ra
zl
牀
1568
1647
埝
洧
1615
shift
788
shen
1588
60mm
覧
tuv
1673
electronic
mos
蓣
8kg
862
echo
1572
section
981
甯
sg
1664
understand
hsk
delta
x86
eap
block
1578
er
xl
蒐
馐
nox
畑
ib
trying
ann
1635
apache
naoh
12345
缑
礽
1624
694
瞋
1601
浍
983
773
1000m
someone
15kg
25m
847
袢
桕
1037
jerry
843
picture
919
e3
printf
3gs
marie
853
rj45
侩
913
896
lose
unicode
100cm
1711
charlie
詈
戸
1689
room
烝
beat
堌
伋
hplc
9300
110kv
nfc
倬
764
iis
圯
solo
碇
ef
round
chang
1366
781
1585
982
socket
df
892
1536
831
ren
6kg
4900
纰
object
forever
832
951
qr
1023
8800
4kg
磾
泔
1131
纮
蓁
971
building
1021
铗
939
弇
挲
crystal
艉
smtp
鱬
cims
fang
1265
trans
pan
1745
1604
泺
橛
817
796
袴
cosplay
1154
1189
749
794
1068
881
hc
hope
1410
couldn
1638
992
along
age
250mg
clear
aps
1631
1011
provides
1123
1701
36000
csf
韪
n1
works
籓
967
ptc
贶
1111
1651
棰
1726
sar
1666
qvga
hf
coreldraw
possible
趵
1629
943
marc
luo
樨
848
county
944
tb
dts
junior
vba
lot
傕
玕
毎
direct
839
繸
2350
774
劵
fsh
wmv
镧
秫
1094
osi
1602
邶
猞
dior
1766
1623
廛
栌
钲
镦
1607
psa
spss
xy
1769
cells
1465
1577
gon
send
vision
thinking
imf
嘏
carl
蝰
32000
bay
928
is09001
镏
20kg
淠
imax
novel
qt
1684
荇
逄
au
author
mod
80mm
1748
849
1612
yet
嘅
929
6l
karl
6100
students
gmat
myself
kate
jpg
979
1752
829
2450
914
876
祕
瑠
48h
mpv
1734
mis
1565
walk
941
1075
1235
natural
k2
977
炝
杪
4050
1669
p3
1004
fn
埴
1555
vmware
chloride
942
steven
1078
獬
966
1135
country
947
柢
捱
跣
887
涑
75mm
1278
1583
western
watch
撃
伢
堠
1045
12m
museum
1215
document
marketing
952
卽
猁
usb3
906
厣
physical
辏
1668
旆
agp
茆
1488
pg
乜
deep
1082
961
踯
1526
#
[
yam
lofter
##s
##0
##a
##2
##1
##3
##e
##8
##5
##6
##4
##9
##7
##t
##o
##d
##i
##n
##m
##c
##l
##y
##r
##g
##p
##f
pixnet
cookies
tripadvisor
##er
##k
##h
##b
##x
##u
##w
##ing
ctrip
##on
##v
llc
##an
##z
blogthis
##le
##in
##mm
##00
ig
##ng
##us
##te
##ed
ncc
blog
##10
##al
##ic
##ia
##q
##ce
##en
##is
##ra
##es
##j
##cm
tw
##ne
##re
##tion
pony
##2017
##ch
##or
##na
cafe
pinterest
pixstyleme3c
##ta
##2016
##ll
##20
##ie
##ma
##17
##ion
##th
##st
##se
##et
##ck
##ly
web885
##ge
xd
##ry
##11
0fork
##12
##ter
##ar
##la
##os
##30
##el
##50
##ml
tue
posted
##at
##man
##15
ago
##it
##me
##de
##nt
##mb
##16
##ve
##da
##ps
##to
https
momo
##son
##ke
##80
ebd
apk
##88
##um
wiki
brake
mon
po
june
##ss
fb
##as
leonardo
safari
##60
wed
win7
kiehl
##co
##go
vfm
kanye
##90
##2015
##id
##ey
##sa
##ro
##am
##no
thu
fri
##sh
##ki
comments
##pe
##ine
uber
##mi
##ton
wordpress
##ment
win10
##ld
##li
gmail
##rs
##ri
##rd
##21
##io
##99
paypal
policy
##40
##ty
##18
##01
##ba
taiwan
##ga
privacy
agoda
##13
##ny
##24
##22
##by
##ur
##hz
##ang
cookie
netscape
##ka
##ad
nike
survey
##016
wikia
##32
##017
cbc
##tor
##kg
##rt
##14
campaign
##ct
##ts
##ns
##ao
##nd
##70
##ya
##il
##25
0020
897
##23
hotels
##ian
6606
##ers
##26
##day
##ay
##line
##be
talk2yam
yamservice
coco
##dy
##ies
##ha
instagram
##ot
##va
##mo
##land
ltxsw
##ation
##pa
##ol
tag
##ue
##31
oppo
##ca
##om
chrome
##ure
lol
##19
##bo
##100
##way
##ko
##do
##un
##ni
herme
##28
##up
##06
##ds
admin
##48
##015
##35
##ee
tpp
##ive
##cc
##ble
##ity
##ex
##ler
##ap
##book
##ice
##km
##mg
##ms
ebay
##29
ubuntu
##cy
##view
##lo
##oo
##02
step1
july
##net
##ls
##ii
##05
##33
step2
ios9
##box
##ley
samsung
pokemon
##ent
##les
s8
atom
##said
##55
##2014
##66
adidas
amazon
##ber
##ner
visa
##77
##der
connectivity
##hi
firefox
skip
##27
##ir
##61
##ai
##ver
cafe2017
##ron
##ster
##sk
##ft
longchamp
ssd
##ti
reply
##my
apr
##ker
source
##one
##2013
##ow
goods
##lin
##ip
##ics
##45
##03
##ff
##47
ganji
##nce
##per
faq
comment
##ock
##bs
##ah
##lv
##mp
##000
melody
17life
##au
##71
##04
##95
##age
tips
##68
##ting
##ung
wonderland
##ction
mar
article
##db
##07
##ore
##op
##78
##38
##ong
##73
##08
##ica
##36
##wa
##64
homemesh
##85
##tv
##di
macbook
##ier
##si
##75
##ok
goris
lock
##ut
carol
##vi
##ac
anti
jan
tags
##98
##51
august
##86
##fs
##sion
jordan
##tt
##lt
##42
##bc
vivi
##rry
##ted
##rn
usd
##t00
##58
##09
##34
goo
##ui
##ary
item
##pm
##41
##za
##2012
blogabstract
##ger
##62
##44
gr2
asus
cindy
##hd
esc
##od
booking
##53
fed
##81
##ina
chan
distribution
steam
pk10
##ix
##65
##91
dec
##ana
icecat
00z
##46
##ji
##ard
oct
##ain
jp
##ze
##bi
cio
##56
h5
##39
##port
curve
##nm
##dia
utc
12345678910
##52
chanel
##and
##im
##63
vera
vivo
##ei
2756
##69
msci
##po
##89
##bit
##out
##zz
##97
##67
opec
##96
##tes
##ast
##ling
##ory
##ical
kitty
##43
step3
##cn
win8
iphone7
beauty
##87
dollars
##ys
##oc
pay
##2011
##lly
##ks
download
sep
##board
##37
##lan
winrar
##que
##ua
##com
ettoday
##54
##ren
##via
##72
##79
##tch
##49
##ial
##nn
step4
2765
gov
##xx
mandy
##ser
copyright
fashion
##ist
##art
##lm
##ek
##ning
##if
##ite
iot
##84
##2010
##ku
october
##ux
trump
##hs
##ide
##ins
april
##ight
##83
protected
##fe
##ho
ofo
gomaji
march
##lla
##pp
##ec
6s
720p
##rm
##ham
##92
fandom
##ell
info
##82
sina
4066
##able
##ctor
rights
jul
##76
mall
##59
donald
sodu
##light
reserved
htm
##han
##57
##ise
##tions
##shi
doc
055
##ram
shopping
aug
##pi
##well
wam
##hu
##gb
##93
mix
##ef
##uan
bwl
##plus
##res
##ess
tea
hktvmall
##ate
##ese
feb
inn
nov
##ci
pass
##bet
##nk
coffee
airbnb
##ute
woshipm
skype
##fc
##www
##94
##ght
##gs
##ile
##wood
##uo
icon
##em
says
##king
##tive
blogger
##74
##ox
##zy
##red
##ium
##lf
nokia
claire
##ding
november
lohas
##500
##tic
##cs
##che
##ire
##gy
##ult
january
ptt
##fa
##mer
pchome
udn
##time
##tte
garden
eleven
309b
bat
##123
##tra
kindle
##ern
xperia
ces
travel
##ous
##int
edu
cho
##car
##our
##ant
rends
##jo
mastercard
##2000
kb
##min
##ino
##ris
##ud
##set
##her
##ou
taipei
##fi
##ill
aphojoy
december
meiki
##ick
tweet
##av
iphone6
##dd
views
##mark
##ash
##ome
koreanmall
##ak
q2
##200
mlb
##lle
##watch
##und
##tal
##less
4399
##rl
update
shop
##mhz
##house
##key
##001
##hy
##web
##2009
##gg
##wan
##val
2021
##ons
doi
trivago
overdope
##ance
573032185
wx17house
##so
audi
##he
##rp
##ake
beach
cfa
ps4
##800
##link
##hp
ferragamo
##eng
##style
##gi
i7
##ray
##max
##pc
september
##ace
vps
february
pantos
wp
lisa
jquery
offer
##berg
##news
fks
##all
##rus
##888
##works
blogtitle
loftpermalink
ling
##ja
outlet
##ea
##top
##ness
salvatore
##lu
swift
##ul
week
##ean
##300
##gle
##back
powered
##tan
##nes
canon
##zi
##las
##oe
##sd
##bot
##world
##zo
top100
pmi
##vr
ball
vogue
ofweek
##list
##ort
##lon
##tc
##of
##bus
##gen
nas
##lie
##ria
##coin
##bt
nata
vive
cup
##ook
##sy
msg
3ce
##word
ebooks
r8
nice
months
rewards
##ther
0800
##xi
##sc
gg
blogfp
daily
##bb
##tar
##ky
anthony
##yo
##ara
##aa
##rc
##tz
##ston
gear
##eo
##ade
##win
##ura
##den
##ita
##sm
png
rakuten
whatsapp
##use
pad
gucci
##ode
##fo
chicago
##hone
io
sogo
be2
##ology
cloud
##con
##ford
##joy
##kb
##rade
##ach
docker
##ful
##ase
ford
##star
edited
##are
##mc
siri
##ella
bloomberg
##read
pizza
##ison
##vm
node
18k
##play
##cer
##yu
##ings
asr
##lia
step5
##cd
pixstyleme
##600
##tus
tokyo
##rial
##life
##ae
tcs
##rk
##wang
##sp
##ving
premium
netflix
##lton
##ple
##cal
021
##sen
##ville
nexus
##ius
##mah
tila
##tin
resort
##ws
p10
report
##360
##ru
bus
vans
##est
links
rebecca
##dm
azure
##365
##mon
moto
##eam
blogspot
##ments
##ik
##kw
##bin
##ata
##vin
##tu
##ula
station
##ature
files
zara
hdr
top10
s6
marriott
avira
tab
##ran
##home
oculus
##ral
rosie
##force
##ini
ice
##bert
##nder
##mber
plurk
##sis
00kg
##ence
##nc
##name
log
ikea
malaysia
##ncy
##nie
##ye
##oid
##chi
xuehai
##1000
##orm
##rf
##ware
##pro
##era
##ub
##2008
8891
scp
##zen
qvod
jcb
##hr
weibo
##row
##ish
github
mate
##lot
##ane
##tina
ed2k
##vel
##900
final
ns
bytes
##ene
##cker
##2007
##px
topapp
helpapp
14k
g4g
ldquo
##fork
##gan
##zon
##qq
##google
##ism
##zer
toyota
category
##labels
restaurant
##md
posts
##ico
angelababy
123456
sports
candy
##new
##here
swissinfo
dram
##ual
##vice
##wer
sport
q1
ios10
##mll
wan
##uk
x3
0t
##ming
e5
##3d
h7n9
worldcat
##vo
##led
##580
##ax
##ert
polo
##lr
##hing
##chat
##ule
hotmail
##pad
bbq
##ring
wali
2k
costco
switch
##city
philips
##mann
panasonic
##cl
##vd
##ping
##rge
##lk
css3
##ney
##ular
##400
##tter
lz
##tm
##yan
##let
coach
##pt
a8
follow
##berry
##ew
##wn
##og
##code
##rid
villa
git
r11
##cket
error
##anonymoussaid
##ag
##ame
##gc
qa
##lis
##gin
vmalife
##cher
wedding
##tis
demo
bye
##rant
orz
acer
##ats
##ven
macd
yougou
##dn
##ano
##urt
##rent
continue
script
##wen
##ect
paper
##chel
##cat
x5
fox
##blog
loading
##yn
##tp
kuso
799
vdc
forest
prime
ultra
##rmb
square
##field
##reen
##ors
##ju
##air
##map
cdn
##wo
m8
##get
opera
##base
##ood
vsa
##aw
##ail
count
##een
##gp
vsc
tree
##eg
##ose
##ories
##shop
alphago
v4
fluke62max
zip
##sta
bas
##yer
hadoop
##ube
##wi
0755
hola
##low
centre
##fer
##750
##media
##san
##bank
q3
##nge
##mail
##lp
client
event
vincent
##nse
sui
adchoice
##stry
##zone
ga
apps
##ab
##rner
kymco
##care
##pu
##yi
minkoff
annie
collection
kpi
playstation
bh
##bar
armani
##xy
iherb
##ery
##share
##ob
volvo
##ball
##hk
##cp
##rie
##ona
##sl
gtx
rdquo
jayz
##lex
##rum
namespace
##ale
##atic
##erson
##ql
##ves
##type
enter
##168
##mix
##bian
a9
ky
##lc
movie
##hc
tower
##ration
##mit
##nch
ua
tel
prefix
##o2
##point
ott
##http
##ury
baidu
##ink
member
##logy
bigbang
nownews
##js
##shot
##tb
eba
##tics
##lus
spark
##ama
##ions
##lls
##down
##ress
burberry
day2
##kv
related
edit
##ark
cx
32gb
g9
##ans
##tty
s5
##bee
thread
xr
buy
spotify
##ari
##verse
7headlines
nego
sunny
dom
positioning
fit
##tton
alexa
##ties
##llow
amy
##du
##rth
##lar
2345
##des
sidebar
site
##cky
##kit
##ime
##009
season
##fun
gogoro
a7
lily
twd600
##vis
##cture
friday
yi
##tta
##tel
##lock
economy
tinker
8gb
##app
oops
##right
edm
##cent
supreme
##its
##asia
dropbox
##tti
books
##tle
##ller
##ken
##more
##boy
sex
##dom
##ider
##unch
##put
##gh
ka
amoled
div
##tr
##n1
port
howard
##tags
ken
##nus
adsense
buff
thunder
##town
##ique
##body
pin
##erry
tee
##the
##013
udnbkk
16gb
##mic
miui
##tro
##alk
##nity
s4
##oa
docomo
##tf
##ack
fc2
##ded
##sco
##014
##rite
linkedin
##ada
##now
##ndy
ucbug
sputniknews
legalminer
##ika
##xp
##bu
q10
##rman
cheese
ming
maker
##gm
nikon
##fig
ppi
jchere
ted
fgo
tech
##tto
##gl
##len
hair
img
##pper
##a1
acca
##ition
##ference
suite
##ig
##mond
##cation
##pr
101vip
##999
64gb
airport
##over
##ith
##su
town
piece
##llo
no1
##qi
focus
reader
##admin
##ora
false
##log
##ces
##ume
motel
##oper
flickr
netcomponents
##af
pose
##ound
##cg
##site
##iko
con
##ath
##hip
##rey
cream
##cks
012
##dp
facebooktwitterpinterestgoogle
sso
shtml
swiss
##mw
lumia
xdd
tiffany
insee
russell
dell
##ations
camera
##vs
##flow
##late
classic
##nter
##ever
##lab
##nger
qe
##cing
editor
##nap
sunday
##ens
##700
##bra
acg
sofascore
mkv
##ign
jonathan
build
labels
##oto
tesla
moba
gohappy
ajax
##test
##urs
wps
fedora
##ich
mozilla
##480
##dr
urn
##lina
grace
##die
##try
##ader
elle
##chen
price
##ten
uhz
##ough
##hen
states
push
session
balance
wow
##cus
##py
##ward
##ep
34e
wong
prada
##cle
##ree
q4
##ctive
##ool
##ira
##163
rq
buffet
e6
##ez
##card
##cha
day3
eye
##end
adi
tvbs
##ala
nova
##tail
##ries
##ved
base
##ways
hero
hgih
profile
fish
mu
ssh
##wd
click
cake
##ond
pre
##tom
kic
pixel
##ov
##fl
product
6a
##pd
dear
##gate
yumi
##sky
bin
##ture
##ape
isis
nand
##101
##load
##ream
a6
##post
##we
zenfone
##ike
gd
forum
jessica
##ould
##ious
lohasthree
##gar
##ggle
##ric
##own
eclipse
##side
061
##other
##tech
##ator
engine
##ged
plaza
##fit
westbrook
reuters
##ily
contextlink
##hn
##cil
##cel
cambridge
##ize
##aid
##data
frm
##head
butler
##sun
##mar
puma
pmid
kitchen
##lic
day1
##text
##page
##rris
pm1
##ket
trackback
##hai
display
##hl
idea
##sent
airmail
##ug
##men
028
##lution
schemas
asics
wikipedia
##tional
##vy
##dget
##ein
contact
pepper
##uel
##ument
##hang
q5
##sue
##ndi
swatch
##cept
popular
##ste
##tag
trc
##west
##live
honda
ping
messenger
##rap
v9
unity
appqq
leo
##tone
##ass
uniqlo
##010
moneydj
##tical
12306
##m2
coc
miacare
##mn
tmt
##core
vim
kk
##may
target
##2c
##ope
omega
pinkoi
##rain
##ement
p9
rd
##tier
##vic
zone
isofix
cpa
kimi
##lay
lulu
##uck
050
weeks
##hop
##ear
eia
##fly
korea
boost
##ship
eur
valley
##iel
##ude
rn
##ena
feed
5757
qqmei
##thing
aws
pink
##ters
##kin
board
##vertisement
wine
##ien
##dge
##tant
##twitter
##3c
cool1
##012
##150
##fu
##iner
googlemsn
pixnetfacebookyahoo
x7
##uce
sao
##ev
##file
9678
xddd
shirt
##rio
##hat
givenchy
bang
##lio
monday
##abc
ubuntuforumwikilinuxpastechat
##vc
##rity
7866
##ost
imsean
tiger
##fet
dji
##come
##beth
##aft
##don
3p
emma
##khz
x6
##face
pptv
x4
##mate
sophie
##jing
fifa
##mand
sale
inwedding
##gn
##mmy
##pmlast
nana
##wu
note7
##340
##bel
window
##dio
##ht
##ivity
domain
neo
##isa
##lter
5k
f5
##cts
ft
zol
##act
mwc
nbapop
eds
##room
previous
tomtom
##ets
5t
chi
##hg
fairmont
gay
1b
##raph
##ils
i3
avenue
##host
##bon
##tsu
message
navigation
fintech
h6
##ject
##vas
##firm
credit
##wf
xxxx
##nor
##space
huawei
plan
json
sbl
##dc
wish
##120
##sol
windows7
washington
##nsis
lo
##sio
##ym
##bor
planet
##wt
gpa
##tw
##oka
connect
##rss
##work
##atus
chicken
##times
fa
##ather
##cord
009
##eep
hitachi
##pan
disney
##press
wind
frigidaire
##tl
hsu
##ull
expedia
archives
##wei
cut
ins
6gb
brand
cf1
##rip
##nis
128gb
3t
##oon
quick
15058
wing
##bug
##cms
##dar
##oh
zoom
trip
##nba
rcep
aspx
080
gnu
##count
##url
##ging
8591
am09
shadow
##cia
emily
##tation
host
ff
techorz
##mini
##mporary
##ering
##next
cma
##mbps
##gas
##ift
##dot
amana
##ros
##eet
##ible
##aka
##lor
maggie
##011
##iu
##gt
1tb
articles
##burg
##iki
database
fantasy
##rex
##cam
dlc
dean
##you
path
gaming
victoria
maps
##lee
##itor
overchicstoretvhome
##xt
##nan
x9
install
##ann
##ph
##rcle
##nic
##nar
metro
chocolate
##rian
##table
skin
##sn
mountain
##0mm
inparadise
7x24
##jia
eeworld
creative
g5
parker
ecfa
village
sylvia
hbl
##ques
##onsored
##x2
##v4
##tein
ie6
##stack
ver
##ads
##baby
bbe
##110
##lone
##uid
ads
022
gundam
006
scrum
match
##ave
##470
##oy
##talk
glass
lamigo
##eme
##a5
wade
kde
##lace
ocean
tvg
##covery
##r3
##ners
##rea
##aine
cover
##ision
##sia
##bow
msi
##love
soft
z2
##pl
mobil
##uy
nginx
##oi
##rr
6221
##mple
##sson
##nts
91tv
comhd
crv3000
##uard
gallery
##bia
rate
spf
redis
traction
icloud
011
jose
##tory
sohu
899
kicstart2
##hia
##sit
##walk
##xure
500g
##pact
xa
carlo
##250
##walker
##can
cto
gigi
pen
##hoo
ob
##yy
13913459
##iti
mango
##bbs
sense
oxford
walker
jennifer
##ola
course
##bre
##pus
##rder
lucky
075
ivy
##nia
sotheby
##ugh
joy
##orage
##ush
##bat
##dt
r9
##2d
##gio
wear
##lax
##moon
seven
lonzo
8k
evolution
##kk
kd
arduino
##lux
arpg
##rdon
cook
##x5
five
##als
##ida
sign
##nda
##posted
fresh
##mine
##skip
##form
##ssion
##tee
dyson
stage
##jie
##night
epson
pack
##ppy
wd
##eh
##rence
##lvin
golden
discovery
##trix
##n2
loft
##uch
##dra
##sse
1mdb
welcome
##urn
gaga
##lmer
teddy
##160
##f2016
##sha
rar
holiday
074
##vg
##nos
##rail
gartner
gi
6p
##dium
kit
b3
eco
sean
##stone
nu
##np
f16
write
029
m5
##ias
##dk
fsm
52kb
##xxx
##cake
lim
ru
1v
##ification
published
angela
16g
analytics
##nel
gmt
##icon
##bby
ios11
waze
9985
##ust
##007
delete
52sykb
wwdc
027
##fw
1389
##xon
brandt
##ses
##dragon
vetements
anne
monte
official
##ere
##nne
##oud
etnews
##a2
##graphy
##rtex
##gma
mount
archive
morning
tan
ddos
e7
day4
factory
bruce
##ito
guest
##lling
n3
mega
women
dac
church
##jun
singapore
##facebook
6991
starbucks
##tos
##stin
##shine
zen
##mu
tina
request
##gence
q7
##zzi
diary
##tore
##ead
cst
##osa
canada
va
##jiang
##lam
##nix
##sday
g6
##master
bing
##zl
nb40
thai
ln284ct
##itz
##2f
bonnie
##food
##lent
originals
##stro
##lts
##bscribe
ntd
yesstyle
hmv
##tment
d5
##pn
topios9
lifestyle
virtual
##ague
xz
##deo
muji
024
unt
##nnis
faq1
##ette
curry
##pop
release
##cast
073
##ews
5c
##stle
ios7
##ima
dog
lenovo
##r4
013
vornado
##desk
##ald
9595
##van
oil
common
##jy
##lines
g7
twice
ella
nano
belle
##mes
##self
##note
benz
##ova
##wing
kai
##hua
##rect
rainer
##unge
##0m
guestname
##uma
##kins
##zu
tokichoi
##price
##med
##mus
rmk
address
vm
openload
##group
##hin
##iginal
amg
urban
##oz
jobs
##public
##sch
##dden
##bell
hostel
##drive
##rmin
boot
##370
##fx
##nome
##ctionary
##oman
##lish
##cr
##hm
##how
francis
c919
b5
evernote
##uc
##3000
coupe
##urg
##cca
##uality
019
##ett
##ani
##tax
##rma
leonnhurt
##jin
ict
bird
notes
##dical
##lli
result
iu
ee
smap
gopro
##last
yin
pure
32g
##dan
##rame
mama
##oot
bean
##hur
2l
bella
sync
xuite
##ground
discuz
##getrelax
##ince
##bay
##5s
apt
##pass
jing
##rix
rich
niusnews
##ello
bag
##eting
##mobile
##ience
details
universal
silver
dit
private
ddd
u11
kanshu
##ified
fung
##nny
dx
##520
tai
023
##fr
##lean
##pin
##rin
ly
rick
##bility
banner
##baru
##gion
vdf
qualcomm
bear
oldid
ian
jo
##tors
population
##ernel
##mv
##bike
ww
##ager
exhibition
##del
##pods
fpx
structure
##free
##tings
kl
##rley
##copyright
##mma
orange
yoga
4l
canmake
honey
##anda
nikkie
dhl
publishing
##mall
##gnet
e88
##dog
fishbase
###
##[
。
！
？
!
?
；
:
;
-
(
)
/
+
"
_
…
~
=
'
%
&
·
*
@
\
]
—
～
^
>
丨
|
<
】
の
【
〔
〕
ー
★
’
🚩
{
}
‘
圸
駦
亴
浾
蓹
髏
燜
燞
燣
齀
訶
訂
齪
蕇
蕵
嚝
驨
碮
悓
悑
誱
誡
誝
誅
嵈
嵄
嘝
槨
槗
藈
藀
藪
藲
怈
笗
笧
烠
烢
烅
烐
銐
謾
謠
謆
錊
艃
艥
艬
錗
魹
媫
鈓
鈍
鈨
讍
唨
絞
櫅
櫛
櫒
櫯
嬌
嬂
嬚
嬯
嬵
稦
鎀
鎼
鎾
鎱
鎨
蠀
蠞
橃
橽
橢
橠
橩
鼆
緡
媀
媘
媶
窲
諧
顃
沀
錭
錇
袩
袦
袳
牨
籿
閫
閱
毜
毃
毢
戜
勪
勶
憅
褻
歽
歱
聀
聐
糴
妛
妰
饒
蹣
蹤
縥
逧
覓
覕
覍
剢
剆
罰
擆
擟
攌
雡
挾
軔
軕
軸
軴
琷
醦
醙
醏
蘣
蘲
蘱
摿
腵
腫
詜
翗
翹
墤
墽
璶
璽
璣
攁
溑
鲄
繥
駚
駁
鯯
臹
臔
駿
駺
堬
眱
僞
蜬
蜸
敮
靕
豄
螪
螒
佇
祽
鰠
曫
鰁
曊
賰
賈
賉
賑
欚
欖
俕
欪
筨
漣
萺
瞘
秴
秛
庘
餯
鑻
皉
皫
皨
皼
諫
鋁
蒫
諃
坾
硘
鴭
鴣
鴲
鴋
鴄
麩
帿
蔔
蔥
栶
嶑
熆
熶
熪
詬
詯
詔
榒
榏
鯉
噧
噮
噋
薘
騿
惂
惻
瀒
瀰
諺
諾
鋍
鋌
崳
嗇
鮺
篺
篵
寲
諩
曍
岓
岤
曇
鮇
炨
炋
譙
檜
啛
謺
孍
孎
孡
涄
穦
懗
懪
尯
茥
紻
樺
竍
竬
慄
嫵
厺
厇
厏
厒
鄁
鍤
鍯
鍁
綇
綨
綬
躴
殏
殧
礯
婃
莥
鷡
莌
鷼
鷻
畘
頱
爉
匛
裗
簢
簣
痮
馟
馴
馶
漲
劯
踲
襨
遾
粷
粡
鹹
奙
憵
躦
躮
餥
釢
淭
釕
淾
淿
刏
觴
闙
脜
脙
脅
脌
搯
搇
搎
瓥
隵
壗
輞
輿
酁
羷
羻
羆
斂
塧
膭
睷
阠
阥
阷
滰
滷
滬
鬜
縇
攳
攼
鳼
鳵
攆
鞤
隸
鑒
隚
蝫
蝵
傠
伜
伆
纓
暺
暞
欽
貗
貧
霥
癬
癷
霌
濐
蟿
乫
乕
礗
礃
礏
趬
盁
盢
贆
贖
葋
垼
潰
鵬
鵚
枩
枽
趨
鐆
鐙
趃
幯
煯
圽
亄
亪
棇
鑲
浂
棴
蓗
朎
朠
砽
燭
齒
斺
齋
竕
齳
訣
訨
訊
蕓
蕦
蕿
嚕
嚽
駌
駋
碊
驓
碵
欰
嵀
灗
灹
嘾
嘆
藺
藸
怶
峀
峵
烡
烵
烾
銓
謲
銱
銿
謊
謁
銯
楨
艔
喅
宱
箃
魢
魬
魸
鈘
鈿
鈱
讕
屪
唙
絹
櫕
櫖
櫮
櫢
櫺
苸
飻
諿
鎧
蠌
蠇
蠟
蠬
蠿
橂
荕
緹
媹
窇
窩
骯
顟
袶
籌
籂
籲
菗
駫
娹
勡
邼
氞
歖
歑
聧
聇
糿
疺
饗
掚
蹗
罞
罜
錿
攨
鸙
擵
挳
琽
蘬
腗
腞
翉
墴
璴
璾
璉
陠
陯
轛
蚇
兘
繱
繌
繒
繚
駇
鼶
旀
旚
臅
韥
駤
韒
迉
迲
迬
僌
僗
僫
渵
敊
徱
徢
徥
靹
豍
豃
澿
澀
澑
螹
螐
螛
螊
佭
偮
偽
鰬
鰃
鰚
鰙
鰞
賘
俖
鱋
鱶
萇
鶁
晘
瞣
秨
庿
庂
梸
諣
梕
坹
硛
硆
鴬
鴢
焒
焝
焣
帪
帵
帾
囌
蔙
仢
磂
磼
杹
嶼
詣
詚
詂
詋
噾
薦
瀈
瀉
瀧
鋖
諦
鋲
鋥
椕
篐
篤
鮏
恎
恷
寴
鮴
鮵
炶
炃
譠
譟
譈
掅
瘔
啔
謬
芞
芁
謉
穔
穁
懳
懢
猤
豣
猍
猅
鏾
鏬
鏪
尡
紇
紌
紳
紴
竓
竎
慸
嫝
嫬
鍻
鍃
鍅
鍞
綁
婒
婛
鷱
畁
頕
頾
頽
郮
簈
簲
黋
黊
痵
痽
姦
釖
襎
襊
襧
犻
犚
汬
粓
粅
肞
躼
憡
瑐
揨
揓
釼
趈
瓔
瓇
瓏
捳
捚
捙
壉
虊
虜
酭
酑
羘
斣
塛
塖
辪
睞
睜
睈
蛽
縍
鳫
矵
鞱
鑭
鞇
鬸
鑏
谉
蝏
蝅
湒
鱡
鱢
彮
蒔
鄴
癅
癮
霘
癳
倃
憳
蟰
龣
礹
礊
廅
贋
潹
鵆
鉳
鐉
鐑
鐜
幆
煛
煱
亗
蓎
朚
朷
砙
砋
髨
燘
齸
齬
蕩
蕱
桘
碩
碸
釸
悀
悿
悡
誽
鄝
嘳
藮
藡
藽
怋
錰
笚
鯣
鯑
銔
銞
銇
謕
楌
艙
垘
魐
憆
魝
魞
魵
鈂
鈷
鈵
屗
屸
絛
櫀
愷
嬒
嬐
嬧
嬰
稓
珿
鎟
鎽
橊
咰
咓
緧
緱
媎
鼸
鼧
鼤
窢
顈
驏
牬
閃
籄
籱
訮
錳
毟
毠
毭
菳
戩
駶
娐
娞
甠
勛
氁
邏
氭
歝
麧
妼
疊
饻
蹆
剶
擏
雧
軪
醗
蘳
詢
摬
摢
龓
摌
摍
摗
腀
墊
璖
璓
埩
溛
溝
溮
兡
兞
繡
繩
繃
渾
蜌
敿
敜
靀
靌
豞
澲
澊
螷
螡
螤
偤
祪
隬
賗
弲
埬
詽
漽
萵
萈
秚
扟
扝
鑉
赼
梷
梥
梋
蒰
蒮
蒘
蒏
釧
麉
麍
鴪
鴱
鴊
鴅
鴁
鴑
柪
焹
拻
帺
蔅
栙
杛
杤
杸
熎
詵
镼
榢
霼
薓
薽
霻
筗
惁
惃
惍
瀃
瀨
諮
鋎
崰
椖
椧
鮿
篞
恞
鮱
鮭
炠
炐
譤
譥
譇
檈
瘚
啺
孾
芆
謘
懎
鬞
猣
猆
鏅
鏀
鏰
樄
樳
竐
竳
慛
嫍
玂
鍹
鍿
綒
殔
殩
呚
婰
鷋
拰
爐
匯
匞
簥
簽
扗
馦
馭
姛
鉯
釮
劆
踍
踚
犜
犐
遪
粌
鹷
奛
躾
餃
揊
刞
搝
瓗
隯
虇
羠
羦
斪
齂
斴
齽
斀
齫
斔
膔
辢
睶
棦
阞
儉
儨
韯
縈
縖
鳭
矆
鞷
皗
隫
鑔
隌
洖
蝔
蝕
伨
湇
纏
纗
鉂
販
癇
蟵
愋
鷬
鷎
盓
鴼
贕
葝
墳
趧
鐛
圢
鑶
亝
浝
髒
髚
髞
燱
燢
訤
訜
桗
碖
驠
驞
誺
誫
嘪
槶
槤
藒
藢
笎
鯴
笜
笖
峺
銜
艀
喗
箿
鈙
鈎
鈺
屶
獟
鑤
瓂
嬍
嬆
嬳
稬
稪
諹
鎍
蠗
橎
荲
媨
窡
驛
顀
顝
抋
沗
袕
籟
沊
毝
菮
菚
戵
戂
傭
娻
勴
氈
褜
褩
歞
歏
歶
歬
聶
聅
糔
糋
妽
掽
掑
蹃
蹥
蹧
蹳
涁
罷
攑
鸗
擛
雂
驙
蘒
蘕
摪
摤
龜
泎
翴
璼
忢
陎
轄
溂
蚅
兏
繷
繉
旇
鼨
臎
堹
眿
僋
僘
敽
侰
靊
豒
澰
澏
螼
鰪
鰔
賤
賌
欏
鱭
鶷
秳
秎
皔
鑈
赾
梞
梇
蒖
坸
硴
姴
鴩
跾
栚
磃
磇
貚
杚
杽
瞃
嶨
嶾
瞈
詸
詊
榓
鯘
鯏
筟
諜
侙
汻
椡
椣
篬
岼
炞
譳
譛
謸
孂
孉
孷
猦
鏉
鏶
紁
樎
樢
樷
竲
嫾
埞
衧
鍛
綉
綥
綺
綿
殙
婅
婱
畭
鷊
畒
郬
餔
匱
裚
鉔
痐
馻
姾
餩
劰
劎
踓
襽
犪
犌
汷
粐
粫
躤
觰
脺
搻
搑
搚
瓾
瓋
隀
庡
壣
壀
冹
輫
羀
膼
膿
膠
膐
辳
辬
睯
儖
儯
鉞
蛕
縮
縛
鞦
鑟
忇
擨
伳
湰
暛
暓
暃
霵
霯
侱
倇
濁
蟬
蟗
蟔
礸
礘
礄
礈
鷏
廩
葲
葃
禪
鵫
枾
蓙
巕
燌
燸
嚹
嚺
桰
焸
灦
槸
藃
怴
怺
笂
峷
峾
烲
烸
烉
烞
銦
謄
艵
喪
宒
箟
箌
箷
讄
獔
唴
唋
絆
絼
櫪
苉
飿
嬫
嬱
鎹
蠝
鼞
橨
緰
媋
顐
錼
牫
籗
閸
毴
菦
菨
勭
聙
饏
掃
蹨
涜
覵
剘
罓
鸄
擈
雦
挕
雗
驝
夳
蘮
摉
腢
腣
腏
墶
璑
璌
忚
轋
溊
溄
兙
兓
繗
旾
鼀
鼵
旘
臋
迃
堯
堫
堟
僁
敥
敪
徶
侺
靲
靤
靪
靅
豛
螶
鰢
湕
筂
俰
筺
鱫
鶟
晠
瞞
庣
扖
皣
梟
蒑
詇
硣
麜
柇
焇
跠
偋
蔮
仜
仾
磰
鯺
熼
熦
詏
榸
鯤
噡
噠
噄
薃
薞
霟
騹
騜
瀩
鋭
崏
嗂
舼
椱
篟
鮅
恈
恦
寵
炦
譋
檙
啠
謶
孇
謥
穪
懼
哹
茰
紤
紶
樬
颴
厑
衑
鍄
鍍
綛
綤
殻
呩
畻
頧
爛
郻
郀
匩
匎
餷
簛
簫
痶
痜
鉊
鉹
鉡
劶
襸
粊
趭
奪
肒
揘
揇
揁
餣
釟
觘
瓽
瓡
瓕
瓄
捹
捪
捈
壨
冟
酛
羏
塎
膉
睧
睉
儩
鳶
鞎
鞝
忊
伿
湷
暫
暡
暚
彂
彎
韖
癋
癑
倽
濧
濣
濽
飸
昿
昗
葾
垷
禷
枤
鐪
幁
圼
蓯
蓾
麮
髍
燛
燶
燲
閅
桳
桛
碬
悂
闖
誼
嵟
嵪
灖
槝
槈
藣
笌
笍
笁
銣
魪
魻
絠
蔖
櫁
飆
稁
鎐
橲
橵
緸
媐
窚
驟
顁
顡
顰
錶
籆
籭
駐
甮
勬
勳
勎
勞
狕
邌
褄
聠
聑
疛
覒
剱
攭
攐
挰
挬
雐
軲
夰
夽
凚
凁
摣
摥
翪
墲
轚
溭
蚸
蚈
筄
洡
韸
韷
眖
渿
渪
蜤
蜛
蜔
瞛
偧
鰿
瘽
賥
賿
埾
鱳
鱦
萕
鶔
晍
瞲
皏
皘
梺
乲
乧
諅
硦
姲
鴦
麣
焍
闢
帇
帎
帍
囆
囼
蔛
磆
磍
杒
嶘
嶣
嶱
镺
镾
噟
騪
惾
瀗
瀋
瀱
崲
崼
汿
椩
椯
鮂
曘
鮳
岴
譅
檆
檯
啂
謎
懸
猑
尵
哬
茽
紨
紭
樍
竔
竀
慩
嫞
衼
鍡
婦
預
頜
頥
匲
餴
裺
裮
簾
黀
釲
姍
劽
劕
犃
遱
汥
粆
撲
撉
奱
躙
躛
躥
憢
脦
搈
隁
捗
壧
壾
輰
虠
浗
羐
塪
塶
膱
膡
儾
矎
隢
鑗
谸
蝩
伂
彸
鄿
龥
倿
棞
愌
愘
昲
盽
葪
葞
趩
圱
圷
亃
蓵
朻
齝
訡
桽
灠
鯟
峹
謮
乊
魓
鈼
鈶
讑
獩
絗
苵
飼
愝
嬮
稝
稴
叺
叓
珁
栕
驣
蠈
蠫
蠻
橶
荢
鼰
鼺
鼣
抧
錪
錔
袧
袸
牭
閄
吘
籵
菬
菃
駠
娏
甈
甌
勏
狣
邷
氱
褗
褁
褽
褣
糃
糩
掋
蹫
逳
逫
逘
涾
鷣
攢
胉
軘
夵
琒
醶
翆
墥
璻
轈
溣
蚥
蚭
蚲
兤
兣
兝
兗
繹
鼿
堒
眻
眐
蜟
敡
徻
澢
澮
澕
螞
傓
祰
祣
曯
購
賟
弤
筁
欴
筪
萪
鶝
鶞
鶛
庩
鑂
鴻
鴓
柋
囶
嶯
嶡
嶹
鯝
噈
薔
騡
騛
惐
鋉
鋷
諎
嗠
汢
舋
椨
篏
篕
曎
炥
炚
炛
譁
檼
孄
芵
穛
鏏
哣
樇
樤
竱
慻
衻
鍷
綴
呧
簻
婝
畩
頚
頸
頿
拞
泟
匟
簱
耝
黬
黸
扴
鉣
劧
劷
劜
襲
犩
汅
汼
粁
鹝
雴
瑡
揱
觛
觪
脪
捓
輎
輺
虴
酜
斍
塷
膯
洔
睤
阫
儂
儎
儑
儶
滄
蛢
縒
矚
蝋
傊
傝
傘
傶
暙
彏
彋
貏
貇
龤
濱
濝
蟤
坈
礇
钀
葿
葥
潛
鵳
鵵
鵛
鵜
鐝
鐯
浶
棭
砨
髖
燗
棏
桇
闂
誵
誘
嵮
嵳
灓
槯
槦
乵
怾
笅
鯦
峂
銉
艍
艦
宖
箁
憜
鈯
讂
讛
屷
唖
巁
絋
絥
絳
櫘
愯
飵
嬏
嬤
嬼
叏
叐
橁
橭
侟
鼡
窉
沠
牰
菷
菄
傡
娔
娺
娧
勆
狹
狵
氜
褈
褼
褹
聣
聕
饊
覶
剈
罺
攗
挔
軒
夓
蘨
腅
翝
翤
璔
陓
轂
蚉
蚚
兯
兛
繴
繑
偂
祒
鰳
曉
賏
弡
鱩
鶮
鶨
秜
庰
扚
鑋
赲
赽
赹
梍
鋽
坕
乤
硲
鴾
柨
焵
闄
跿
帴
囸
磖
詮
薼
騌
瀊
瀳
瀪
椃
篊
篧
恖
恥
岇
譼
譝
檹
涀
懟
懙
鏙
鏇
鏧
瞗
茦
颯
慗
嫧
嫢
嫴
衏
衇
玴
綸
殝
婜
畝
鷒
郹
郖
餝
鉖
鉑
黫
痸
痻
扲
鉤
踜
犤
犈
撌
躍
瑋
釰
觲
觬
瓑
捰
斬
斻
垀
斈
斞
膗
辝
辴
睂
滊
縅
縏
鞊
忣
鑖
隇
貃
貱
癪
汙
侇
倲
蟼
蟐
蟝
礝
憰
麯
贁
潑
禯
鵤
圚
圅
蓌
砶
巈
閍
蕮
颵
誥
嵡
嵢
槹
槬
怑
怌
笣
峖
峔
峓
峊
楆
宑
箈
箳
衃
讅
獸
唘
愵
愇
飽
債
嬑
珗
橀
荾
緔
鼥
諠
顅
沑
沞
袃
牘
毞
毺
駷
錑
娾
疘
掓
涃
涰
覙
覽
剦
罤
琺
凜
蘟
蘝
摕
腪
翋
墏
轁
轃
鄇
蚞
鼝
臦
韀
韕
迶
韴
瑌
敐
澷
澻
螕
佨
鰮
鰷
簩
瘹
弴
俼
欯
黺
漞
鶶
瞊
鶓
秇
邭
鋑
梚
蒬
硺
硡
鴮
鴙
柛
焂
蔧
偳
熮
噊
薚
薭
鋞
諯
崨
舽
椦
椾
篻
恜
攇
審
譿
譫
譃
孈
芅
謈
穼
穭
鏆
鏺
哠
哯
茩
茣
紱
紺
厬
鍎
綜
綶
鷭
頃
爎
泀
匒
餁
釵
踿
犡
撍
躽
餀
釾
釣
淒
淣
刾
刉
觾
觠
搶
輄
輱
酟
斳
辭
睴
睮
睙
阣
儬
滜
蛨
縀
縎
矘
矊
鬫
忥
忀
蝁
湬
纙
龝
龒
癛
倹
礙
鷵
鷅
盄
盜
盿
廎
贒
垳
垥
潯
潣
禍
鵗
鐁
鐦
圿
髕
燯
閲
誸
藰
怽
笿
烑
銴
楈
艪
宯
魯
魱
獡
獿
獱
獊
獕
絬
櫡
櫴
愲
愸
嬓
稖
稄
稢
鎷
蠠
荴
緛
媉
媊
媬
顊
顨
袬
牽
籫
菤
駂
娝
勵
氉
糝
疄
饇
蹪
擾
雋
琑
凙
蘰
墿
兦
臫
臗
韰
迱
眑
僲
僼
渷
測
敠
澬
螑
螝
狾
偉
佦
曓
鰑
鰝
俒
筣
漊
漜
萀
鶭
鶾
鶑
鶙
蒆
硧
硥
麆
鴏
柖
焛
焏
拸
囻
杫
詳
詾
榲
霺
筫
惖
瀿
舚
舿
舦
椲
篈
篃
鮤
鉅
檓
謱
穤
懫
猽
鏒
鏣
竵
鲓
嫟
厜
玤
殶
殬
婸
泈
泏
匫
匷
顖
鉐
鉘
欈
黖
姰
踕
踾
遷
遈
遜
撫
挸
躳
秮
瓵
瓚
瓊
隿
壺
壔
鲝
酨
膓
辷
洘
儧
蛵
鬕
鑐
謧
貄
貳
摦
癴
倄
倵
濍
濜
蟸
礣
廽
廠
廀
葔
鵧
鐚
鐟
鐣
鐹
幗
圶
朄
巪
閚
蕠
嚛
嚇
嚶
桞
驐
誳
誦
誜
誏
藼
笡
鯋
謹
銡
楓
憑
憤
嬘
蠘
荰
緮
窏
窪
抣
抾
抁
顩
吀
籕
閛
毊
甐
勁
狜
狏
麡
聰
妔
妋
鸉
鸅
軟
拪
琟
蘛
摻
龞
腸
腝
腁
腂
翓
璤
璭
忂
蚏
蚗
兊
繨
臱
臩
迌
僠
蜦
蜵
徣
徝
徎
靯
靔
偣
鰦
埣
漺
鶅
晆
晿
秙
庴
瞮
扨
邜
鋶
蒚
乮
諀
鴌
焥
帒
囕
栛
磯
鯠
鯕
噅
騝
崥
攂
椫
椻
恗
寈
寚
岾
譂
啳
孞
鏞
尲
奮
紦
紷
樼
岋
慂
慔
岻
厛
鍋
綂
綑
殘
呍
婏
婯
莍
莏
鷪
畣
鋜
頗
泍
挄
泴
匧
匇
耲
黨
馲
馢
馪
姟
襓
擳
犅
汄
違
粰
撊
闅
揦
刢
刔
缽
瓍
捛
酀
塃
阦
儫
縤
矺
矌
鑡
谻
蝐
纋
暬
貁
貵
蒠
霐
癱
濭
蟘
礋
盵
葮
鐅
鑯
蓛
蓞
朼
燙
齻
註
蕍
蕟
桙
碷
誙
嵦
灷
藵
鯼
銈
謣
艗
喞
箼
魡
魧
鈌
屔
獋
獉
絟
苀
飁
愮
珬
珡
蠺
蠱
橗
緋
窙
袞
籪
毶
毻
菕
泦
歒
歎
逽
逪
胑
挮
雈
雓
蘌
腛
泋
翨
墑
璢
轐
旊
臥
韽
眪
蜠
蜙
侼
靏
豯
齣
鰰
鰴
俿
俲
埀
萗
鶽
秷
秡
瞱
庈
鑵
坥
硰
詌
鴀
焃
跈
跒
釘
囨
蔰
磛
磠
鯾
熋
榺
麳
薎
騻
騰
瀢
崵
嗿
嗊
霛
偼
曆
炾
鉵
鬁
懯
鏍
鏋
哻
紛
呄
頌
爍
郠
郥
郱
裞
裃
釳
襵
襷
犝
趤
憁
瑵
淎
損
瓬
瓝
捁
輲
浱
羈
塇
膸
膞
睕
儰
滼
棧
蛒
縺
矁
鞽
忴
忹
蝺
傦
纼
纉
纃
鉃
侷
濃
濖
礭
盰
廳
廦
趗
鄈
潐
鵮
鐊
鐢
煶
棎
棶
朜
砡
砐
髊
巤
燉
燰
訉
閺
蕜
誢
嵤
灲
灱
槄
藞
烌
銃
銄
楁
楏
媏
憛
魗
魤
魳
憱
唡
稇
珟
珚
珕
蠾
橍
荹
窽
袉
卙
牱
錥
毲
甊
褲
聁
糞
糷
妕
疉
覥
罌
罧
挩
驕
驈
琗
蘓
摼
詓
翄
陒
溸
繞
臰
韑
眰
眃
浨
渘
渄
渱
敱
敃
瞖
豈
螁
螌
偅
偖
佒
埁
欛
鱴
漡
萊
庮
邥
赯
蒥
蒒
坘
蔁
栬
仠
杔
熐
榵
鯚
薻
霗
騬
惥
鋠
嗋
椊
寙
岶
岮
炴
譱
譡
穻
懚
鏼
茐
竴
慲
厲
厃
殱
殾
婫
莗
畂
畓
頑
爮
匤
裄
裠
裧
簄
曻
襒
粙
粣
撴
肅
肁
躢
揙
餪
觓
脮
搷
搙
膷
鬍
滯
鬚
鳹
攍
矙
矄
隡
蝒
伅
鱑
鱰
暈
彫
貨
癐
霚
倱
蟦
昅
廗
贈
垖
潊
鵋
鐴
幣
棾
蓻
髶
蕛
碆
悐
嵥
灙
怰
笐
烣
銂
謓
艒
鈩
獶
獈
唩
絘
嬎
稰
橏
荶
鼅
咟
緷
錎
袲
牑
吜
傤
菛
駥
娦
褑
麘
歮
聸
鸈
胿
挭
雸
軯
凣
邚
蘯
蘻
蘿
摓
轠
溤
兇
繧
韏
堢
堗
敨
侳
豱
佱
祶
湥
鰫
鰊
弙
俧
筬
筽
秱
庎
鋺
坙
硱
硞
硄
麎
鴚
閕
跓
帣
蔏
栥
栮
磒
鯃
騈
崙
恔
曃
撔
譚
譐
譀
檚
啒
謯
孠
懝
懶
哘
茮
慏
厱
厼
玽
鍦
鍼
鍾
呹
婟
婋
婾
鷳
匉
扏
鉫
襺
遳
遙
粇
撡
撶
躰
淕
脋
搄
搟
瓨
瓪
瓙
捾
壽
壛
輡
虦
羒
齹
膖
膌
睏
儠
蛷
鳻
矤
鬠
傗
傼
暆
彺
彁
貢
飄
礎
鷷
鷐
垗
潻
鵱
枀
亙
砿
砊
巊
巸
訪
嚊
桻
碈
誀
嵃
嵹
嘕
藚
怘
笝
鯨
峟
銧
喢
箶
鈪
鈫
讝
屳
唽
飺
嬨
嬥
栣
鎖
鎴
窂
袊
菺
駮
狑
氻
聏
聟
妎
妴
饝
饢
覝
鸼
胮
洠
蘁
摶
腜
陣
轌
轷
鄬
溩
蚢
繵
繀
鱪
臒
韄
迼
堷
敘
敄
豅
螖
鰾
鰇
瘱
筕
漌
邩
皬
梮
邒
蔱
仒
栫
熢
榗
騱
騘
崅
崹
舤
恀
鹐
檧
芕
鬝
猶
鏴
尦
哶
哸
紮
樶
慖
衈
埍
玐
綘
綱
殈
畕
頙
簆
簝
譺
欇
痬
曪
襐
擯
擺
遲
撱
躟
揌
淃
淵
刯
孶
壥
輆
輖
虭
浽
羫
塮
膽
膲
睲
儊
滣
鬉
鬔
蛓
鬎
鞪
忓
忈
湵
纄
暿
鄼
貀
癠
蟚
飳
趏
廂
廁
贊
趻
鐖
鐗
幤
棥
浺
蓜
蓡
砱
巶
燓
桺
碒
嵣
怓
鯬
鯒
銸
艞
箂
魶
鈐
鈭
鈥
屖
獻
唒
櫉
櫗
愅
鎕
蠩
蠯
蠥
蠳
蠷
緀
媔
媰
袣
籃
歋
糆
鸖
雬
雵
琘
拀
醠
醕
蘶
蘉
蘜
翍
墇
陃
鼚
韹
敾
偡
祻
弞
俻
鶃
鶌
秼
赥
梹
梘
蒤
麔
鴔
焋
焪
帠
蔢
偔
栵
嶜
嶽
榟
鯞
噒
薕
舙
恱
寏
炢
譹
譑
譄
孆
懀
懻
懱
猭
鏩
紖
樌
樐
嫷
玬
畞
頪
爋
耚
簶
痑
姄
姯
姡
劃
襱
遻
汓
撀
曐
躗
躖
捇
葯
壓
輐
儢
滲
蛗
鳪
鞃
彉
貕
霧
濏
蟻
廢
掗
枆
煷
棗
朆
砪
嚿
碅
颲
誋
嵔
灪
槕
藫
怷
怸
鯛
銆
楲
喬
絧
苬
飉
愳
嬻
栨
鎬
蠂
橸
抍
沯
卥
籉
菣
娽
勫
糂
糱
疷
覸
罬
驡
挧
雞
夝
摚
翶
陖
陝
韌
眮
僟
敁
傁
齼
湽
鰜
賎
隱
鶪
鶀
瞜
皢
皽
鋢
硶
硳
焲
焺
囜
薑
薡
騆
嗧
嗀
椞
檢
謪
穖
穚
猠
鏮
衭
綩
殐
畍
爤
爃
匶
馰
馯
劋
踤
憿
餡
釀
觮
脄
隓
虂
浀
膥
縪
忛
隝
洍
傽
湸
湀
暢
鱃
彶
蒊
癵
濴
濗
礔
鷜
葟
丳
禿
鵃
鐽
幏
煹
圲
棢
棟
齊
訰
蕂
蕒
悎
闁
悹
灎
怚
烮
喡
喚
魒
憴
鈋
獹
唕
櫋
櫄
苆
飌
愶
鎙
荱
媥
驆
袔
勸
聮
饂
蹸
剙
軶
驅
摙
翭
轀
臸
迿
僐
蜳
蜏
敀
豩
豦
澾
螙
偩
偺
祳
弿
筡
漬
萅
秶
庫
鑽
皧
鋿
硑
柫
焑
拹
跍
帄
帋
帓
囄
仯
磟
磱
熚
詙
榳
噝
筞
侀
椈
篖
篶
恅
曤
寎
寣
寭
芀
懧
鏱
哅
樃
樜
竷
洓
鍂
呝
呞
呂
莁
頉
郼
裭
馣
粂
撐
肨
躘
挴
觃
脥
瓫
瓁
捸
輚
輑
虈
齃
膮
睰
儭
滐
蛥
矒
鞛
貪
蝭
貞
貶
癊
霃
濸
愄
昸
盳
钃
趞
葕
葌
禙
鑺
圥
巔
蕭
誇
嵍
嘙
烳
烍
銒
艌
喥
宎
魀
憐
屚
獵
唀
嬁
嬸
咊
骩
錖
閠
戄
娷
逩
雥
軞
軬
摷
陫
鄊
駒
臟
迠
渮
蜐
螴
祑
賖
欮
萲
萟
瞹
邤
鑌
鋼
鬮
囩
蔉
偯
仺
磄
嶺
嶵
鯹
鷑
詉
榯
薵
霠
瀶
諽
鋘
崣
椬
鮷
恮
寁
岆
譪
檕
懤
哰
紑
嫯
涥
鍢
綵
殕
呭
鷧
爩
郔
黆
黰
釶
姷
踃
襋
襹
瑪
挘
釺
觙
脈
捦
壦
壿
壜
酻
羺
蛧
鬧
忨
貫
濚
愡
趢
盪
廟
丒
垬
趛
幚
煾
浻
燅
燽
蕐
桿
悇
嵉
嵻
嘵
峬
謰
銷
楴
艐
獇
愜
荿
卆
籨
毄
毈
駍
狧
饡
逜
覻
剹
罵
鸋
攈
瘮
鄸
摮
溿
繠
韓
堾
堸
堖
眆
偙
鰏
漟
鱨
晭
梪
梄
蒃
鋧
柌
柦
柧
囒
仦
仹
嶊
熌
熰
騺
筍
惈
瀂
瀤
鋸
椔
椘
鮬
鮘
岎
岉
譯
孹
懁
懴
懩
殸
婹
莑
齺
鷹
頨
郍
餢
簚
馜
姏
姅
釯
踥
犿
躕
揰
揬
淗
趉
闛
搹
壘
輏
膁
睼
蛫
縱
鳿
攃
洆
礛
盷
潳
煼
煥
圤
棳
蓃
蓫
蓳
砎
砈
髗
巚
嚃
嚡
桋
碄
碤
誷
嵆
嵼
嘊
笰
峢
銾
喍
箻
魙
獄
苂
嬔
稘
叜
鎈
橾
緑
緢
顉
籢
娯
狅
歫
疧
掆
涆
逿
覛
剭
擋
軵
蘥
蘫
摳
翖
繬
駽
眫
眝
僯
渒
蜹
豐
豼
螔
佅
俥
俉
萓
鶊
扸
瞯
庪
蒶
鴖
骽
磤
鯽
熉
噴
鋣
鋪
範
岥
炗
譽
檌
懕
樀
綅
婂
鷨
頺
爥
裖
劀
汒
撹
憽
淊
缼
捵
浢
齱
塳
蛦
蛈
縫
矨
鞂
忟
忋
洦
傋
湠
纀
暯
暭
彙
霮
倫
礥
趡
垊
丣
幈
幓
煄
煭
圗
亂
棝
蓪
悙
誧
嵏
嵐
鯩
笓
峅
宊
魿
鈗
唚
櫊
嬄
嬠
嬽
叴
珢
珼
珻
蠽
媴
顜
抐
卛
吺
籏
岟
狊
狇
攅
胅
雿
軝
夡
溳
蚔
兾
織
鼑
鼜
臕
駾
韇
迡
堳
徾
侸
豏
豿
鰗
埱
欨
庽
皩
坖
焆
瞂
嶬
惀
惌
瀎
鋊
恄
鮑
檻
檰
謙
懜
尀
哴
樚
樓
竘
慞
骿
衉
莇
鷾
畡
爂
泧
耴
鉒
馤
鉮
襙
肵
躌
躒
瑖
瑓
揮
揚
搳
搃
捿
捬
浲
齛
膫
膟
膕
睻
滖
攩
伄
湹
湁
暜
癏
癗
霒
濌
鷤
葨
禐
禎
鐺
幑
圡
蓈
砏
燑
訷
閉
訁
蕼
桚
桒
嵱
笇
烗
乑
箤
箥
絾
苮
橉
緟
媍
窼
籦
籸
戱
甛
褏
妦
蹞
涶
剝
攕
夻
醜
醃
墖
鄍
兌
駣
迏
眣
蜲
敒
徔
澅
澖
萷
鶣
扂
蒼
坅
鴨
蔳
熕
鋚
嗕
寷
鮥
譻
檔
穐
涗
攎
穧
懭
鏂
樿
厞
衸
躈
綗
爗
餓
姠
踰
犕
撁
撎
撜
憞
奿
瑘
挋
脠
脟
輁
輘
阭
儀
鬀
鳮
伖
湪
蘐
貈
霋
倁
倸
濔
鄧
蟩
蟃
乢
礕
礟
鷚
鐕
煝
棿
蓩
朤
燆
燍
訦
嚁
嚮
桸
曭
嵵
嘼
嘗
笽
楰
屽
嬞
嬺
稟
鎒
蠍
蠰
橕
橤
咃
窹
傆
顄
顆
抰
袏
牅
吤
毷
娪
産
蹽
覞
鸏
軆
軜
軓
醱
蘹
陚
鄭
蚻
駊
韅
僓
蜽
洯
瘻
弒
鱔
漇
庌
皵
硂
跮
跙
帲
囐
栦
偵
瀖
鋾
寉
寪
曟
岰
譶
譨
岅
竆
竧
衒
鍨
殅
瑤
餶
黗
躆
瑩
刱
觗
闝
觷
脭
脫
瓎
羉
齵
塺
塴
塐
攷
鳺
擠
蝛
傂
濨
濿
礶
鷢
趒
鵅
枛
鐱
趓
煒
圛
棙
朖
巓
燒
斦
嚰
誻
灟
灇
銋
謍
謃
鼊
鈢
讘
獀
唂
蔤
櫐
櫔
嬣
珴
額
吂
戼
褯
歰
岯
掜
蹖
蹮
覤
攡
擉
熭
醷
洷
腎
繲
鼘
堥
僒
徸
靻
偐
佊
祬
賀
賝
弽
執
漁
漄
晱
庻
梖
坁
鴍
焬
跁
囇
偄
栠
霳
惉
諔
篂
鮁
譒
啿
芇
懠
懡
樆
厸
鍝
爧
匴
欆
踄
襼
犾
犓
撽
奅
揗
淔
挆
趌
冸
冞
輌
齴
垽
睖
阺
蛁
蛖
縸
彾
彨
彃
貑
蟡
愗
盃
潫
禶
鐀
煙
煀
蓕
巀
桾
颬
悈
嵧
灔
笀
峕
峈
憪
魼
鈖
唥
稕
珘
垪
鎮
荝
荺
袑
袽
閇
籘
籤
毾
毧
菙
駖
甤
狤
褟
褞
鸁
凷
欙
璸
璍
轞
繿
駻
蜫
徑
靽
豘
豑
螜
萿
庨
蒛
柉
嶛
薧
惿
嗺
嗗
篗
曣
瘋
懺
猏
樧
衁
埊
衯
爢
爫
鉰
鹵
肂
脧
虷
浘
鑙
鑁
蝦
洂
癝
趮
掕
鵣
鵴
趜
鐼
煈
蓒
砃
碐
颽
嵠
嘦
藯
怐
烿
傢
屆
唄
唍
鎺
蠎
橰
橷
緪
媁
顬
錝
傿
袟
勌
狿
聛
糚
糭
饛
饀
剨
腃
翢
溕
蚷
蚾
繝
臐
臄
眲
眗
豙
螎
埦
漮
漅
皒
梲
蒁
坃
鴶
柭
跀
偀
栰
熻
榡
癲
惞
瀀
舕
椂
寬
曖
檤
啩
啌
啈
穃
穩
懘
猵
猚
尶
鍴
殰
呁
婡
匰
裷
簎
黚
馧
踁
踑
踛
粖
肕
瑏
雽
揢
餅
觼
膪
鳳
矲
矂
鞼
湚
纐
倝
侢
鷽
掝
禈
鐥
幍
圵
朹
髺
齖
齉
碼
灥
宐
獜
獑
飍
緎
錋
閵
戨
娋
歍
攋
凾
墰
溒
蚼
迯
堶
蜧
徍
瞚
餲
偠
傰
賍
欘
萉
晐
瞙
庱
庉
邍
蒝
仱
磢
熑
惤
諈
崊
鉓
啝
芉
懬
鏕
樴
竃
慶
莵
簂
欗
痝
馮
犳
奆
瓆
壏
輛
輢
酼
齇
塰
睭
蛜
鬇
隒
蝳
湱
鱖
暩
濲
葻
枴
幎
訩
灢
嘨
銤
楑
憂
箛
鈴
屓
櫹
苩
抩
娗
甋
勊
氠
糦
剻
挀
雜
琝
琓
摱
墢
轙
兠
兂
堐
渨
豽
螆
鰡
俓
鱙
萴
晀
秄
梔
乷
鴺
闆
榽
噃
噖
瀇
崫
恑
恆
曅
譣
栺
穞
鬤
涺
衘
呅
婐
畨
頋
泤
匌
簊
簭
劮
餺
揝
觸
脀
捝
冑
輂
斱
膎
蛼
鑀
蝹
彽
霩
濹
濟
礳
贉
葁
潡
禗
禃
枦
蓤
砤
砄
巄
訹
怢
箉
層
獁
絡
鎁
荊
籚
毨
勼
狪
氃
氋
妐
剠
挓
蘴
摲
摝
陭
鼮
眤
敶
偨
鰆
俇
鴘
麷
骴
嶉
熷
騀
瀡
篅
寢
炵
炏
檴
孊
竡
厽
玔
鍵
莈
鷴
畆
頓
爣
餄
欋
黣
痯
襳
奞
奾
肦
憣
觟
搫
塵
膬
儽
縼
鬦
濦
濪
飶
趪
盶
丯
禌
燵
閗
嚂
嵑
灮
熝
怭
烒
楍
喠
箆
魛
魦
讆
屘
櫲
飃
飥
稯
珶
珛
蠦
橆
緩
錏
袎
袙
狘
褅
麥
逓
涹
覑
胣
夶
夅
凍
醹
摀
轖
繟
韲
韱
堛
僢
渜
偦
鶫
皅
皠
梩
乶
鯶
榬
噵
恴
鮫
炪
芲
鏚
哃
颾
埅
衛
綾
殠
畽
頬
簘
簵
遼
撆
刡
捤
冊
塕
忩
忯
忕
鱎
彑
盇
潃
禢
訓
嚖
嘇
藌
絑
櫎
飋
飬
嬇
稛
牳
聝
妉
妢
饌
覗
覭
罿
軖
琩
翐
溾
繈
臽
迊
豜
豤
螰
埓
梛
餭
坢
跜
囙
磩
榶
恲
炡
呮
呟
匔
耊
馚
馠
鉠
漐
犦
擽
汮
奃
肻
挱
餋
缹
酫
膶
蛡
矕
鑓
谾
礉
昍
盙
葄
蓸
髬
蕀
蕧
怲
銗
宲
唌
絸
叿
橔
媷
沰
狚
歁
麫
糳
蚦
繜
臨
堚
眳
眒
蜪
靱
豶
賣
詑
晲
庢
赨
鴹
焟
榹
噓
騵
崺
鮜
鮕
猔
紟
嫥
餟
鷀
裶
夃
襂
襡
擬
淉
捘
捖
冺
冎
酙
膚
儤
縳
蝑
貼
責
癧
昋
趕
葼
潧
禝
鐈
幭
棤
棜
朾
髵
髼
巆
巺
証
悞
誤
嵾
嵰
槾
峏
楜
艧
稒
臺
卂
戅
戁
勀
歀
罯
夘
韤
祦
漨
鶥
秥
墋
坓
柍
柕
蔾
榝
薩
薱
薲
騐
侽
撠
鮯
鹻
謞
茤
茠
樲
嫶
衚
綡
頂
爠
郰
黲
據
奜
肀
躝
躹
淚
觺
塓
鬡
彌
潈
幝
亐
嚔
桬
碯
悷
笶
蟕
魽
稅
珇
媆
顳
牪
籰
閜
菒
娕
邟
剬
醘
顣
繣
繎
堘
渁
秢
扄
閖
杋
崬
侞
岦
檾
啋
孏
茿
嫛
厀
鍟
呠
莦
畼
畗
項
郉
餻
黂
劍
擪
襪
奺
肰
躣
躨
刅
觵
階
冪
虅
羍
齚
膇
阧
隖
洃
倠
蟲
葈
蓋
嚸
悥
誎
嵺
嘄
槏
藄
笢
峼
楃
艓
箰
媙
魭
飢
珆
珜
抮
袘
娤
歐
糎
縓
驦
軭
軦
驉
凈
腒
繺
鰅
瘯
賜
弪
弔
欓
鶆
邧
蒩
硓
仈
杴
熂
諪
舑
椌
曔
檏
檒
謭
穫
懅
樁
厡
鍖
呥
畉
爖
爅
扷
姕
釽
輷
虰
垏
蛅
鱯
礰
鐧
忎
朸
齞
閷
誩
嵅
槷
媡
獽
絃
鎝
蠜
橺
荁
緵
鼦
疞
蘪
翲
墷
鄦
旪
旤
臇
駧
敓
鴐
跦
跔
仛
椮
篍
篣
篽
恾
曋
譢
啽
謻
鏄
嫐
厗
綼
莐
揼
壃
斢
齯
垎
垰
膹
蛬
鳱
洶
湐
癕
濅
鷮
潗
禸
鵝
枎
燻
悋
災
槢
笩
峐
峉
烆
艭
喛
鼲
唹
櫼
荋
戝
掻
饆
饠
胈
凎
凂
醝
醟
墧
墜
溙
堩
渹
豰
傱
漸
晵
評
梒
硵
詍
跡
嶫
詄
榙
噹
侐
築
篿
檺
懓
慹
鍫
殟
婙
莭
襥
撥
挶
餉
揈
輝
斖
辡
睄
滵
傮
鱁
蟖
愖
枺
營
侾
嚵
誮
灀
藾
笉
峸
宆
魕
獎
唞
絚
櫾
櫵
苧
稸
蠉
抪
抂
顠
袌
袇
卾
娮
涭
剒
鸓
旑
韛
僪
弅
鱝
鱐
漧
萰
梬
跇
騙
啨
啙
孫
鏠
哫
茙
納
樔
鍗
婘
鷶
郂
擓
挊
齩
阹
鑞
躠
彞
垹
虌
鐵
亰
蕫
嚴
颪
藑
艷
屵
絽
窵
錄
牶
菢
狟
褍
麢
蹹
鸐
墮
陥
繤
繪
旈
旓
臖
韗
浫
豓
瘇
鱆
萠
鶿
鋻
坺
硩
騳
嗁
椉
穊
樒
樻
竸
嫼
婎
偹
撧
奝
奲
肬
肣
憼
觩
搩
隑
壯
輩
膧
睋
儓
滒
鞙
蝚
湌
鱅
蟱
垙
幧
鑮
燈
桟
嘓
楀
喐
絯
緂
骬
閞
閣
罼
攓
驗
凔
蘠
蘦
龡
轥
韊
迗
敂
螇
俔
鱏
鋡
蔆
磿
嶆
噽
霬
諸
芢
尋
紽
嫆
厭
埲
鍀
綕
呇
骲
頄
泭
襏
脕
冐
輬
虪
酕
膵
滭
鳸
鞁
鬱
癦
倯
鉼
髥
燦
蕑
嚾
槴
怞
喴
箊
愢
珋
栯
栜
蠄
咉
褱
醩
詀
眧
敵
靝
鰽
瘨
侊
鱾
瞐
扡
柣
镹
騟
瀸
譕
譆
啓
嫓
鍌
爼
簔
簬
襾
捼
輯
輪
垐
膢
辥
阢
鞢
趚
丬
鵌
圕
棄
髐
齍
齌
驘
欱
灆
鯿
峑
烰
喯
箹
鈆
獌
唈
櫌
飠
珨
鎅
橝
緭
窮
窯
袡
牥
籈
菭
戫
糧
餙
雔
「
」
／
π
｢
｣
$
≥
〜
°
°c
±
≤
≈
×
÷
￥
＠
¡
¢
£
¤
¥
¦
§
¨
©
ª
«
¬
®
¯
²
³
µ
¶
¹
º
»
¼
½
¾
¿
ß
æ
ð
ø
þ
đ
ħ
ı
ĳ
ł
ŉ
ŋ
œ
ſ
ƒ
ǁ
ɐ
ɑ
ɒ
ɓ
ɔ
ɕ
ə
ɛ
ɟ
ɡ
ɣ
ɤ
ɦ
ɨ
ɪ
ɫ
ɬ
ɯ
ɲ
ɴ
ɸ
ɹ
ɾ
ʀ
ʁ
ʂ
ʃ
ʉ
ʊ
ʋ
ʌ
ʎ
ʐ
ʑ
ʒ
ʔ
ʕ
ʙ
ʝ
ʤ
ʦ
ʧ
ʰ
ʲ
ʳ
ʷ
ʸ
ʻ
ʼ
ʾ
ʿ
ˁ
ˈ
ˋ
ˌ
ː
˙
˚
ˡ
ˢ
ˣ
΄
α
β
γ
δ
ε
ζ
η
θ
ι
κ
λ
μ
ν
ξ
ο
ρ
ς
σ
τ
υ
φ
χ
ψ
ω
ϕ
а
б
в
г
д
е
ж
з
и
к
л
м
н
о
п
р
с
т
у
ф
х
ц
ч
ш
щ
ъ
ы
ь
э
ю
я
ђ
є
ѕ
і
ј
љ
њ
ћ
џ
ѣ
ѧ
ѫ
ѳ
ґ
ғ
җ
ҙ
қ
ҡ
ң
ҫ
ү
ұ
ҳ
ҷ
ҹ
һ
ӊ
ӏ
ә
ө
՚
՛
՜
՝
՞
ա
բ
գ
դ
ե
զ
է
ը
թ
ժ
ի
լ
խ
ծ
կ
հ
ձ
ղ
ճ
մ
յ
ն
շ
ո
չ
պ
ջ
ռ
ս
վ
տ
ր
ց
ւ
փ
ք
օ
ֆ
և
։
֊
־
׃
א
ב
ג
ד
ה
ו
ז
ח
ט
י
ך
כ
ל
ם
מ
ן
נ
ס
ע
ף
פ
ץ
צ
ק
ר
ש
ת
׳
״
،
؍
؛
؟
ء
ا
ب
ة
ت
ث
ج
ح
خ
د
ذ
ر
ز
س
ش
ص
ض
ط
ظ
ع
غ
ـ
ف
ق
ك
ل
م
ن
ه
و
ى
ي
٠
١
٢
٣
٤
٥
٦
٧
٨
٩
٪
٫
٬
٭
ٴ
ٹ
پ
چ
ڈ
ڑ
ژ
ڠ
ڤ
ک
ڭ
گ
ں
ھ
ہ
ۃ
ۆ
ۇ
ۋ
ی
ێ
ے
۔
ە
۰
۱
۲
۳
۴
۵
۶
۷
۸
۹
ݨ
ः
अ
आ
इ
ई
उ
ऊ
ऋ
ऍ
ऎ
ए
ऐ
ऑ
ऒ
ओ
औ
क
ख
ग
घ
ङ
च
छ
ज
झ
ञ
ट
ठ
ड
ढ
ण
त
थ
द
ध
न
प
फ
ब
भ
म
य
र
ल
ळ
व
श
ष
स
ह
ऽ
ा
ि
ी
ॉ
ॊ
ो
ौ
ॐ
ॠ
।
॥
०
१
२
३
४
५
६
७
८
९
॰
ॲ
ং
ঃ
অ
আ
ই
ঈ
উ
ঊ
ঋ
এ
ঐ
ও
ঔ
ক
খ
গ
ঘ
ঙ
চ
ছ
জ
ঝ
ঞ
ট
ঠ
ড
ঢ
ণ
ত
থ
দ
ধ
ন
প
ফ
ব
ভ
ম
য
র
ল
শ
ষ
স
হ
া
ি
ী
ে
ৈ
ৎ
ৗ
০
১
২
৩
৪
৫
৬
৭
৮
৯
ৰ
ৱ
৷
ਅ
ਆ
ਇ
ਈ
ਉ
ਊ
ਏ
ਐ
ਓ
ਔ
ਕ
ਖ
ਗ
ਘ
ਚ
ਛ
ਜ
ਝ
ਟ
ਠ
ਡ
ਢ
ਣ
ਤ
ਥ
ਦ
ਧ
ਨ
ਪ
ਫ
ਬ
ਭ
ਮ
ਯ
ਰ
ਲ
ਵ
ਸ
ਹ
ਾ
ਿ
ੀ
ੜ
੦
੧
੨
੩
੪
੫
੬
੭
੮
੯
ੲ
ੳ
ઃ
અ
આ
ઇ
ઈ
ઉ
ઊ
ઋ
ઍ
એ
ઐ
ઑ
ઓ
ઔ
ક
ખ
ગ
ઘ
ચ
છ
જ
ઝ
ઞ
ટ
ઠ
ડ
ઢ
ણ
ત
થ
દ
ધ
ન
પ
ફ
બ
ભ
મ
ય
ર
લ
ળ
વ
શ
ષ
સ
હ
ા
િ
ી
ૉ
ો
ૌ
૦
૧
૨
૩
૪
૫
૬
૭
૮
૯
ஃ
அ
ஆ
இ
ஈ
உ
ஊ
எ
ஏ
ஐ
ஒ
ஓ
க
ங
ச
ஜ
ஞ
ட
ண
த
ந
ன
ப
ம
ய
ர
ற
ல
ள
ழ
வ
ஷ
ஸ
ஹ
ா
ி
ு
ூ
ெ
ே
ை
ௗ
ఁ
ం
ః
అ
ఆ
ఇ
ఈ
ఉ
ఊ
ఋ
ఎ
ఏ
ఐ
ఒ
ఓ
ఔ
క
ఖ
గ
ఘ
ఙ
చ
ఛ
జ
ఝ
ఞ
ట
ఠ
డ
ఢ
ణ
త
థ
ద
ధ
న
ప
ఫ
బ
భ
మ
య
ర
ఱ
ల
ళ
వ
శ
ష
స
హ
ు
ూ
ృ
ಂ
ಃ
ಅ
ಆ
ಇ
ಈ
ಉ
ಊ
ಋ
ಎ
ಏ
ಐ
ಒ
ಓ
ಔ
ಕ
ಖ
ಗ
ಘ
ಚ
ಛ
ಜ
ಝ
ಞ
ಟ
ಠ
ಡ
ಢ
ಣ
ತ
ಥ
ದ
ಧ
ನ
ಪ
ಫ
ಬ
ಭ
ಮ
ಯ
ರ
ಲ
ಳ
ವ
ಶ
ಷ
ಸ
ಹ
ಾ
ು
ೂ
ೃ
ೕ
ೖ
೦
೧
೨
೩
೪
೫
೬
೭
೮
೯
ം
ഃ
അ
ആ
ഇ
ഈ
ഉ
ഊ
ഋ
എ
ഏ
ഐ
ഒ
ഓ
ഔ
ക
ഖ
ഗ
ഘ
ങ
ച
ഛ
ജ
ഝ
ഞ
ട
ഠ
ഡ
ഢ
ണ
ത
ഥ
ദ
ധ
ന
പ
ഫ
ബ
ഭ
മ
യ
ര
റ
ല
ള
ഴ
വ
ശ
ഷ
സ
ഹ
ാ
ി
ീ
െ
േ
ൈ
ൗ
൧
൨
ൺ
ൻ
ർ
ൽ
ൾ
ൿ
ක
ද
ප
ම
ය
ර
ල
ශ
ා
ෙ
ก
ข
ค
ง
จ
ด
ต
ท
น
บ
ป
ภ
ม
ย
ร
ล
ว
ส
ห
อ
า
ำ
เ
แ
ไ
་
།
ཀ
ཁ
ག
ང
ཆ
ད
ན
པ
ཕ
བ
མ
ཚ
ཟ
འ
ར
ལ
ཤ
ས
က
ခ
ဂ
ဃ
င
စ
ဆ
ဇ
ဈ
ဉ
ည
ဋ
ဌ
ဍ
ဏ
တ
ထ
ဒ
ဓ
န
ပ
ဖ
ဗ
ဘ
မ
ယ
ရ
လ
ဝ
သ
ဟ
ဠ
အ
ဤ
ဥ
ဧ
ဩ
ါ
ာ
ေ
း
ျ
ြ
ဿ
၀
၁
၂
၃
၄
၅
၆
၇
၈
၉
၊
။
၌
၍
၎
၏
ა
ბ
გ
დ
ე
ვ
ზ
თ
ი
კ
ლ
მ
ნ
ო
პ
ჟ
რ
ს
ტ
უ
ფ
ქ
ღ
ყ
შ
ჩ
ც
ძ
წ
ჭ
ხ
ჯ
ჰ
ჲ
ᄀ
ᄁ
ᄂ
ᄃ
ᄄ
ᄅ
ᄆ
ᄇ
ᄈ
ᄉ
ᄊ
ᄋ
ᄌ
ᄍ
ᄎ
ᄏ
ᄐ
ᄑ
ᄒ
ᅡ
ᅢ
ᅣ
ᅤ
ᅥ
ᅦ
ᅧ
ᅨ
ᅩ
ᅪ
ᅫ
ᅬ
ᅭ
ᅮ
ᅯ
ᅰ
ᅱ
ᅲ
ᅳ
ᅴ
ᅵ
ᆨ
ᆩ
ᆪ
ᆫ
ᆬ
ᆭ
ᆮ
ᆯ
ᆰ
ᆱ
ᆲ
ᆵ
ᆶ
ᆷ
ᆸ
ᆹ
ᆺ
ᆻ
ᆼ
ᆽ
ᆾ
ᆿ
ᇀ
ᇁ
ᇂ
᛫
᛬
ᠠ
ᠨ
ᠬ
ᠭ
ᠰ
ᡳ
ᴬ
ᴮ
ᴰ
ᴵ
ᴶ
ᴷ
ᴺ
ᴼ
ᴾ
ᴿ
ᵀ
ᵂ
ᵃ
ᵇ
ᵈ
ᵉ
ᵍ
ᵏ
ᵐ
ᵒ
ᵖ
ᵗ
ᵘ
ᵛ
ᵢ
ᵣ
ᵤ
ᵥ
ᶜ
ᶠ
ᶻ
᾽
‖
‚
‛
„
‟
†
‡
•
․
‥
‧
‰
′
″
‹
›
※
‼
‿
⁄
⁰
ⁱ
⁴
⁵
⁶
⁷
⁸
⁹
⁺
⁻
⁾
ⁿ
₀
₁
₂
₃
₄
₅
₆
₇
₈
₉
₊
₍
₎
ₐ
ₑ
ₒ
ₓ
ₕ
ₖ
ₗ
ₘ
ₙ
ₚ
ₛ
ₜ
₤
₩
₪
€
₱
₴
₹
ℂ
℃
ℓ
ℕ
№
ℚ
ℝ
™
ℤ
⅓
⅔
⅛
ⅰ
ⅱ
ⅲ
ⅳ
ⅴ
ⅵ
ⅶ
←
↑
→
↓
↔
↗
↦
↺
⇄
⇌
⇒
⇔
⇧
∀
∂
∃
∅
∆
∇
∈
∑
−
∕
∗
∘
∙
√
∞
∥
∧
∨
∩
∪
∫
∴
∼
≅
≒
≡
≪
≫
⊂
⊃
⊆
⊕
⊗
⊙
⊞
⊥
⋅
⋯
①
②
③
④
⑤
⑥
⑦
⑧
ⓐ
─
━
│
┃
┏
┓
└
┗
┛
├
┣
┫
┬
┳
║
╱
█
■
□
▪
▬
▭
▲
△
▶
►
▼
▽
◆
◇
◊
○
◌
◎
●
◡
◦
◯
☆
☉
♀
♂
♕
♖
♗
♘
♙
♠
♡
♣
♥
♦
♪
♭
♯
⚭
✝
⟨
⟩
⟪
⟫
⟶
ⱼ
ⵏ
⺩
⽥
〃
々
〆
〇
〈
〉
『
』
〒
〖
〗
〝
〞
〟
ぁ
あ
ぃ
い
ぅ
う
ぇ
え
ぉ
お
か
き
く
け
こ
さ
し
す
せ
そ
た
ち
っ
つ
て
と
な
に
ぬ
ね
は
ひ
ふ
へ
ほ
ま
み
む
め
も
ゃ
や
ゅ
ゆ
ょ
よ
ら
り
る
れ
ろ
わ
ゐ
ゑ
を
ん
ゝ
ァ
ア
ィ
イ
ゥ
ウ
ェ
エ
ォ
オ
カ
キ
ク
ケ
コ
サ
シ
ス
セ
ソ
タ
チ
ッ
ツ
テ
ト
ナ
ニ
ヌ
ネ
ノ
ハ
ヒ
フ
ヘ
ホ
マ
ミ
ム
メ
モ
ャ
ヤ
ュ
ユ
ョ
ヨ
ラ
リ
ル
レ
ロ
ワ
ヰ
ヱ
ヲ
ン
ヵ
ヶ
・
ㄚ
ㄧ
ㄨ
ㄱ
ㄴ
ㄷ
ㄹ
ㅁ
ㅂ
ㅅ
ㅇ
ㅈ
ㅡ
ㅣ
ㆍ
㈱
㎒
㎞
㎡
為
國
會
時
這
個
學
來
與
發
們
對
業
動
過
經
開
說
現
區
電
機
長
體
間
當
關
將
場
進
無
實
內
資
點
還
產
員
沒
務
號
計
並
應
灣
種
設
網
從
讓
車
東
數
報
樂
兩
師
書
選
樣
愛
統
題
問
華
專
萬
運
門
處
傳
別
導
結
術
總
頭
風
創
醫
氣
達
觀
變
約
認
見
戰
單
記
類
請
裡
遊
馬
視
論
線
團
話
強
義
價
議
圖
參
組
畫
辦
園
節
聯
亞
帶
則
際
標
質
給
費
調
該
權
許
稱
張
規
連
語
眾
轉
續
條
爾
廣
兒
證
隊
軍
級
賽
覺
裝
環
習
舉
縣
劇
藝
難
歷
領
熱
製
決
親
備
優
較
戲
維
滿
獲
卻
藥
識
頁
聲
幾
離
館
羅
護
鄉
試
黃
陳
龍
讀
療
紀
職
興
紅
歡
極
協
蘭
確
邊
準
歲
雙
顯
編
陽
屬
適
輕
隨
寫
買
態
養
寶
響
戶
講
獨
聽
遠
簡
聖
課
細
終
爭
構
狀
聞
勢
斷
溫
雖
財
農
況
銀
復
積
須
係
夠
僅
陸
禮
億
載
險
攝
癿
島
腦
負
嗎
靈
錢
飛
擊
減
幫
絕
麗
擇
傷
謝
討
擔
補
週
繼
異
錯
夢
飯
圍
媽
魚
換
談
雲
顧
採
願
監
鐘
殺
練
宮
丌
榮
勝
擁
訴
盡
筆
順
樹
釋
葉
剛
啟
綠
劉
飲
絲
懷
奧
漢
紹
鏡
緊
貴
飾
惡
堅
輸
吳
靜
藍
橋
驚
舊
競
怼
佈
畢
詞
婊
圓
賞
歸
針
鮮
詩
腳
貿
遺
餘
頻
貸
楊
彈
憶
緣
淨
敗
臉
績
誠
陰
蓮
誰
紙
壞
診
寧
戀
衝
純
複
虛
謂
擴
鬆
貝
賓
塊
莊
湯
鬥
艹
誌
傑
慮
祂
輔
壇
佔
郵
齡
紐
麵
劑
賴
澤
潔
隻
烏
顏
髮
凱
緒
鹕
滅
慣
鳥
妳
貓
誕
幹
豬
儲
娛
劢
鄰
駕
閒
賢
側
蘋
橫
帳
讚
穌
騎
鹽
迴
潤
掛
煩
趙
濕
搖
螢
贏
錦
儘
槍
憲
併
繳
牆
迚
牠
廚
亍
沖
頒
廈
託
駛
櫃
邁
盧
謀
傾
涼
銅
軌
徹
攜
鑑
鏈
啵
爺
滾
毀
岡
礦
晉
賺
臵
紋
茲
爲
獅
遞
瀏
俠
櫻
踐
償
倉
繫
悅
醬
鋒
譜
幵
銘
淺
欄
纖
舖
夾
蔣
洩
蹟
煉
惱
鳴
峽
砲
緻
帥
辯
菸
灘
妝
慘
嘚
禱
殼
闊
崗
賭
攤
捨
紗
粵
穎
韻
龐
丟
塗
韋
賦
臘
侶
錫
慾
賠
捲
僑
蘆
丿
彥
轟
糾
銳
琍
跬
仸
噸
呾
艱
囉
颱
拋
灬
芃
虧
癒
捌
磚
湧
刪
呲
旳
樸
叢
濾
鈣
痱
曬
訟
膩
唷
僱
噔
脹
騷
籠
彿
詐
漿
饋
諒
顛
壢
悶
孬
岀
冇
詠
緬
唰
癥
賊
灑
犧
懲
嚐
濤
亊
蘊
樑
棲
鈕
緯
濫
嘣
穀
竊
鶴
馳
塢
篩
屢
嚯
鑼
豔
倆
僕
咁
檸
賬
搡
囔
喰
禦
佢
薅
罒
嬅
祿
訝
垚
襯
珮
磡
締
噌
刿
茼
賃
莖
癡
丏
癢
唸
埤
伱
掙
埗
諷
紡
欸
鈞
吅
勻
綫
纜
樞
咘
囟
胗
囯
馊
湊
淪
鈉
啷
埼
銹
囵
輻
説
旮
巿
囫
慜
鑄
崑
乩
镱
詭
妺
疇
硚
澱
踴
抻
汆
腚
咣
餵
墾
窺
镨
鑰
鹼
嬿
闡
旯
閩
氫
毖
羨
檳
剎
嶄
铒
枰
啫
鲣
轱
鴉
鶯
唛
丼
龅
篪
涠
铕
摯
衞
瘡
逑
峇
賄
碜
哐
嘯
镥
乀
湉
钪
亻
攪
駭
砟
樘
皲
繽
塚
蔭
浐
閑
皺
歩
撈
娌
鉛
崁
啲
钬
撿
铽
锨
艋
醣
擤
囍
朊
噁
円
菓
鈔
攬
犇
恫
彳
钐
甦
殯
増
嚒
鞏
矯
妯
萁
尷
攔
逯
铥
矍
芘
釆
渦
垡
圌
癀
嘔
诌
懇
忪
笫
恵
炻
戓
醯
翀
曈
瀾
綻
咗
瀬
龇
迕
暉
曠
钆
閘
揶
戆
壩
揠
岢
嶋
囑
硌
緝
鎂
厶
遶
氹
顫
蚵
冴
轎
閥
蛱
砗
鎊
靚
紓
絨
椋
锒
蕞
鋅
瘍
齁
檫
甪
锃
扌
桜
鉀
磲
鲱
乛
倖
喺
毘
譴
肏
丄
県
鹮
黉
恹
硪
埇
姫
笕
箪
聳
燚
薈
屮
艿
閔
庹
嘢
鯊
妁
缃
鼍
綢
哞
囂
逕
憫
暱
溼
哝
铩
窣
蒗
谖
軀
跶
哂
诹
鳊
掮
笤
竇
掴
陜
瀕
蒞
鄒
穸
舺
豎
鲮
蕻
葑
浈
蠛
鴿
鋰
瑣
嫚
仫
叕
鏽
擷
踟
茛
睚
駱
壟
曌
锝
鹩
梶
糁
筲
硷
髫
檪
褙
婳
孥
諱
兲
隹
柵
鍰
哋
駅
啞
頤
揀
矬
楦
咝
箅
蛲
奵
铑
垵
辻
俣
蝾
擲
熘
谰
竄
巒
紘
浉
纴
萩
嗆
吽
咭
幟
阄
菔
粧
荜
撺
広
鳢
埵
昝
锱
滙
叒
竅
毐
衆
鄠
疋
鉄
昰
囝
売
浥
鸶
豊
餚
璁
櫥
銝
骓
钅
椟
瑯
飪
艽
鲽
馓
挃
攏
嫪
廬
殳
仵
禩
孖
瀹
嵛
謗
鱗
窸
嬲
卣
吶
堺
槓
閨
栢
腘
劼
陞
绗
絢
邴
黢
黴
竜
彡
嫒
臍
霑
仧
呔
鳎
艄
宄
埸
丅
蹰
屄
廸
涙
刂
澆
鲭
鳐
坼
饸
眭
盞
糌
酹
溘
怍
迓
閻
舢
瀣
箏
姘
晝
擱
宀
斃
诓
瘊
繕
肫
尓
詛
柝
墻
厍
趄
轳
満
嚨
叧
蛞
饹
蛸
嫻
龢
趔
憊
嗥
淩
螽
毆
瀝
埻
篠
埘
怃
歳
殭
纛
鲆
亜
猹
龉
駝
阝
斲
痺
黧
諭
蛩
暌
蛻
狲
鑿
鳉
巟
憍
褫
雛
嗚
鹛
鷗
偲
鲥
伥
廋
靂
硎
菈
忄
笪
暻
怄
饑
鷺
舾
頰
搗
鲉
蛴
孓
団
畚
頔
堙
龃
榀
啁
枠
櫚
繆
蠖
擄
烜
蚨
搴
龔
帯
芰
蟥
瀟
枟
捩
铷
晩
蠊
綽
蝓
崀
湳
噘
曛
悪
嘬
劤
柾
狻
唵
墘
兕
栊
膂
嗮
佾
嫱
凪
畀
錐
嚗
讠
尐
鱷
谝
媞
辺
殑
萏
蘩
犽
嚟
痠
刖
椐
迺
黾
睺
鈦
郇
耪
込
煳
嗉
洇
掼
暐
畊
齑
罟
侖
檎
垕
镄
熾
娈
荩
鞯
穢
玢
鼯
嘩
炘
涐
氾
滌
匚
洸
坜
笹
猢
妗
鬯
艸
嗫
儼
焐
辶
輾
浞
聾
悝
媵
玎
镔
玹
鼙
撓
瘆
崐
夗
蹚
鲔
穂
薷
筘
総
溲
籬
锕
岜
魈
胬
釁
蠶
澪
瘓
耵
貯
簷
揑
豨
袪
蔵
鵑
轍
蚰
侉
鋆
剋
箝
聍
虿
纟
嘁
屣
忉
餍
蟮
劬
鐸
褡
碶
柊
淸
榖
杌
鲞
軋
鸲
専
蝥
颶
蚺
仮
蒨
儷
幷
鹟
脒
潆
郞
飧
嶝
粝
褔
诎
氅
齦
苈
疍
倮
巉
荳
帰
殍
殲
蠔
喈
旰
诼
婭
鏢
鹇
姪
旼
驢
吔
冏
蕪
錠
酽
顱
誨
挢
鲩
歴
嗄
庥
黱
隳
蹁
皰
湓
芣
沚
沵
啐
鲡
勠
枨
隂
倥
镙
酃
屙
輒
忸
夤
龘
揿
铼
鍪
搵
歃
璿
馃
蚋
棻
絵
剣
猇
蚍
醞
鲋
絜
吥
埒
槻
轅
塱
褰
絶
鍙
寛
祆
睪
姮
卐
奬
茚
尅
锔
幛
暾
頹
錘
脇
谳
悒
卩
捯
抔
椪
嫫
縷
钌
嚅
蠅
滗
饅
攣
鬘
蠓
遄
梃
鸸
岈
桴
蝸
儕
浼
傚
瀆
乗
犭
炤
耧
哕
畛
燁
牾
袆
扞
嚥
毳
瀍
児
绐
毬
転
玘
殛
茑
剞
鑾
偬
闘
舳
鰻
筇
抜
粄
髑
阋
闔
蕎
糨
犴
鰲
鳩
図
暠
甍
怩
鉉
僦
舻
尢
饔
骀
罾
阍
蔘
蓐
隕
鮪
屺
慚
婁
醢
糰
螬
喁
鉻
沄
尛
笮
湔
巜
杢
弾
嗵
鹎
杩
嗰
螵
覚
熒
顎
脷
懾
鳇
鹋
翃
伕
仉
谂
柁
搦
萆
伛
拏
屾
贅
廝
禵
眄
痙
繭
殂
鸚
槠
硇
湲
璺
泖
眞
贛
榊
貊
匦
珽
蟊
枂
鼩
獼
熜
褊
痦
佷
狁
樋
麈
觯
溷
葦
嫠
晡
圬
蜮
鸹
昃
鲻
廻
祓
釗
呒
嫄
垱
鵲
嗞
戋
鍏
裢
驊
黪
朮
誹
觋
畠
猱
莩
囘
矧
顸
癃
筼
鸰
蜩
铪
裥
呖
胙
遘
愀
綮
愦
鹪
潲
鋈
闕
郷
琤
苤
霪
岽
誣
夬
庋
踅
皞
髎
阒
堍
芟
笊
哓
敍
卲
稲
嫑
鵡
谿
徬
伧
坌
賂
鎌
崞
喲
餾
攵
冋
陔
鎳
験
罨
惢
芴
嬢
雫
劻
镘
婠
愬
窳
卺
澂
檶
驍
脔
觜
钫
輟
畎
揾
颎
跫
鄺
帻
観
囖
糬
贓
镚
觏
蓠
缒
蒟
芄
瘥
躋
泐
龀
亠
鏟
棼
饣
悛
贠
檠
讬
粢
鬈
呶
鵰
熳
蕹
钋
獣
舄
蜣
龠
訳
郛
篼
価
鷲
癯
磙
礡
祧
夲
譏
礻
慊
碹
鹣
皤
鏘
筓
栃
锇
鲐
槡
鰭
姉
镪
倓
菹
両
靑
媸
谞
洳
蒻
枱
缡
乄
榎
峣
烺
皀
幀
堿
楪
觳
瑢
锘
険
筜
臌
搿
嗍
笱
圏
荛
埽
鉆
訛
錡
塩
桄
湣
嘖
隠
砵
簕
冫
嚀
鹀
汭
镢
棨
鮨
撻
涘
蟛
岣
咼
辚
覷
膾
桤
朧
欷
蕅
墁
獴
钖
畤
漷
済
槑
偾
缧
笾
堉
謐
鴛
燿
傧
栻
懔
襻
霊
凃
淏
浬
髪
萣
塆
蔟
鼗
煖
鲼
嶶
韜
坵
矇
绠
苳
摟
甏
狳
骃
暸
揹
傒
処
摰
嗌
閏
铫
魟
瓞
徴
魷
蕺
棪
荭
捜
玏
幞
滉
笸
濺
觌
沬
窭
袷
莿
卬
缌
荖
菝
鏗
饫
氷
焼
蠃
荬
艟
莸
燠
瀞
伲
崾
霂
炟
偓
嫲
麿
鳚
酾
勅
俬
塭
囷
犰
衤
禤
乇
翾
牴
梽
衹
芏
溽
礫
埯
祼
轵
龕
玧
敎
锪
嵖
趼
湴
埌
撘
壊
饩
肜
隞
踔
蹀
氿
謦
怫
燐
砉
淯
揸
栄
垧
顔
耂
鲚
唻
喫
橥
斎
芑
効
暘
呯
撄
甓
壆
衪
绱
唿
栳
澔
诖
砑
榇
仂
筿
牁
値
烀
嬪
嚭
儇
滸
磻
亽
犼
鹡
垤
葜
綏
鸞
奐
詼
羥
呙
廑
鮰
徧
鑣
鉗
綝
柃
掎
妘
閡
緞
蟪
婼
螣
艴
茈
澌
揺
慝
舴
鞮
丷
昳
禟
酎
掤
搧
冨
軾
錚
漶
洑
銖
跩
蠣
钭
狃
雱
澥
尌
凊
聱
舯
蔌
趿
遹
蔹
冖
镆
僥
洫
猡
苢
鋐
仏
甕
鹱
羼
舣
玙
訕
葷
颃
鳓
縯
狨
藹
硗
鹁
娡
蜞
墼
蛘
胂
拃
尒
佸
暋
呪
橦
堎
跂
谇
蕰
掊
麇
劓
銎
詰
徆
蒇
鎚
艨
纔
郿
鎔
滠
屜
硃
亹
畬
梼
曱
剀
阌
鼢
鐮
炱
筊
衎
卹
劥
厓
隴
徠
諳
琲
闍
哿
灝
烔
芤
薬
仳
蚡
绲
菉
仌
薫
唎
羝
眚
鞴
崟
抺
姤
酡
枘
锸
苘
刭
窆
疒
瘧
瑱
箋
噉
篥
鸻
汎
氺
抃
阼
訫
躔
曽
夂
殌
軼
蕁
圝
貽
娭
訢
釭
浄
渟
璈
従
蒎
錤
镡
棬
荘
硯
猓
殮
冂
氇
鹍
圧
鞞
錨
硏
贍
琹
渼
葸
槳
槔
崦
瞼
绨
驩
埏
憚
縠
惣
滝
佴
頼
儁
舨
臁
営
馘
渋
舁
狴
闌
黙
櫆
蚃
頡
鹆
媺
龆
籐
閤
岵
韡
梱
礅
晧
莛
姵
尙
鹓
雮
纻
瀵
鲕
瘳
蹺
狛
鲹
裰
绁
毑
斉
槙
瞇
葙
慳
茍
鞲
缊
墕
阯
轾
祔
鲌
缷
尪
屼
猃
耩
耱
琎
溦
礪
魘
瘵
轺
騏
裼
蠼
詝
嶇
踬
蒉
寘
玱
纩
峩
氆
瘛
諡
讞
眀
雑
勍
枹
箦
罽
涫
鞒
刜
碡
缲
絷
餌
酲
鹾
桖
虮
晳
斝
舎
凵
尜
藠
羑
郐
昪
玚
譎
吣
酤
堋
溇
歺
殤
缍
煇
驥
顒
蟎
痲
珧
鲃
飖
禔
罱
壸
颟
騁
鎗
毌
皝
炩
鲴
镈
梿
洨
鄚
渫
莂
躞
搠
崚
俜
撙
鏤
瀘
郕
馇
迆
隣
澉
筅
睒
玗
扆
働
骎
翙
螓
憷
嵝
啱
虓
禇
漭
鲊
戥
薁
劏
戻
榱
丆
翛
簦
栞
腙
柙
鹨
渉
锾
薀
眬
燼
摅
窬
崢
巛
珵
紂
簃
煺
汧
楗
攞
鐳
洣
菑
嶅
赙
瑆
纍
燄
汔
楙
殞
莶
樫
躐
倶
閎
縝
沨
倻
朏
燴
珹
鰂
餒
蚆
鐲
埧
廴
锖
憭
卝
鮀
佉
戽
澗
莃
蝤
塅
踣
勲
侘
廹
骕
聴
吿
夛
缋
欅
瘼
銑
髟
璂
宍
戯
孃
廒
権
宬
紜
亀
矻
氍
蒾
瘅
瞀
骟
砹
凖
逭
鲦
锍
菴
鎣
拶
菂
濰
缳
绋
姞
苊
龑
栴
佹
狽
螀
鼷
鷟
癍
枵
盉
紉
悵
勗
詫
跽
忞
栟
擐
锞
窅
亅
瘜
亾
讱
蒈
虼
薆
昚
姽
袛
駄
瞢
驒
俢
罣
貍
獯
罥
斿
暁
贳
謨
椠
舭
筦
瓩
鈊
忭
呴
薢
堽
滆
巘
璆
鱸
咾
骉
欟
剷
钶
栒
攴
垲
繖
鉏
鸺
茀
邇
滃
柟
昡
伾
骙
搆
茺
銬
庀
幪
欻
膄
鱈
鳯
嘮
攮
莢
嗾
甡
鹖
舡
儍
禚
裉
痄
遯
渕
鶘
簏
釦
悃
撾
莀
裎
咴
藨
礤
镅
譞
肈
酴
孒
圊
旂
囪
魆
乸
訥
閦
彐
辮
鱲
鳑
錮
犢
彟
俆
蝻
疰
嵫
嗶
蔴
齤
韐
玆
摽
赕
薊
茇
窓
櫸
簠
玡
継
鵟
罝
殪
鞥
锽
沇
袓
煕
痩
蟄
髈
瀼
鄘
誗
郪
騒
敫
冮
摛
沕
呺
噍
冧
廾
仼
岺
媧
鄔
奷
鵙
狺
牤
羂
锫
嘍
螋
扥
俛
鯓
爝
蒄
肸
詡
鄲
搋
簖
珝
逹
叆
労
峠
稂
瘌
慫
瑊
駆
鰕
塝
艚
畯
锎
鐩
匜
濊
揲
渖
麤
咥
盦
靬
蒀
傺
舘
晢
賨
呑
坫
鑊
繋
錕
鄹
鐾
芼
牉
龁
祏
蛑
羄
埜
涇
歔
陴
蕗
乚
鎰
鮟
皚
闶
藔
瞍
甃
斕
峴
劄
巂
勹
仩
羇
鳀
缐
薂
轆
憙
媄
鯖
餈
跞
眛
靦
埈
蠵
鱇
麹
覇
踺
櫂
萑
鈾
撖
鋤
檿
慟
庒
贇
镟
塹
瀅
鲏
蝟
庁
颋
鍥
塄
鞔
绹
芶
鲿
羃
鍑
聡
訚
鄩
狝
縄
礐
廆
迖
佧
甗
宧
刋
飑
窀
醑
餞
溍
忮
臑
謔
惝
洢
鮠
蒅
鶩
閟
嚩
戠
兎
佽
銭
蝿
徃
樛
冚
覩
蚄
茳
袀
諄
帀
趱
亖
涴
莄
禘
倞
掲
眵
轹
詨
黐
鱀
皦
狓
蕡
骱
陁
藦
锬
莧
鱉
諗
籥
汚
喦
躄
矞
劂
砘
靄
縢
詆
昤
泶
曺
閹
掟
敉
赸
軽
鲗
耔
擗
牋
硤
庝
奓
踫
縁
緘
砩
濩
酂
傛
廙
隷
柷
辵
掞
羙
熺
铚
浤
鎢
亼
払
犲
礓
醵
紬
蜆
悳
覬
霙
獍
磉
楢
曄
袼
鹢
廍
洿
懽
袮
芻
迮
膅
嫰
榍
銵
搢
媜
哳
甴
夊
謚
彆
恏
枃
烴
脛
瑨
鄫
螄
嵎
躉
欒
覦
嵁
脳
籺
諲
蓂
伈
毵
佁
勔
烱
婬
葢
狯
慥
燏
锼
毪
攙
喎
侁
詧
庳
獷
諍
膆
锓
蟳
輋
軻
吢
毹
禋
颼
椇
礞
鮎
塽
趍
钔
飐
丠
傉
鉚
尥
衊
襜
溁
穏
夋
岃
侓
乁
岞
浡
旛
蹻
朌
鍐
棐
柸
犏
浛
晸
暎
葎
臜
悰
僇
魮
潏
戞
荄
瘐
叚
楛
巣
氕
騑
肷
敔
昫
嘰
篚
夐
祘
锩
裊
擰
迒
婞
廌
酺
裣
挙
綎
譲
皕
皛
窾
瓌
鲺
蝨
躪
碥
厷
蜾
銨
庅
哖
囲
饞
栿
辿
嶸
鶸
漖
惛
攉
圁
鼱
祹
倣
鵺
鳡
菫
濘
餽
捃
覲
杮
洈
瞓
燾
菥
脬
嶲
襕
脁
珦
捫
悽
懐
茝
搥
膃
煐
硭
潁
韃
弻
澴
嬋
訏
顥
璪
圀
錞
怱
遅
韆
苼
艶
櫈
悕
楤
涢
賸
铦
禕
渃
閪
脣
蓀
尨
鎘
鋹
榼
鮈
冃
鴕
嵚
諏
丗
鼽
騫
刬
鬏
屛
錬
煬
帱
驀
繙
俵
鱻
蝲
蹓
颳
焞
驪
傜
儚
賡
粞
賁
猋
弶
寯
倢
絺
鴞
歛
莰
獺
舲
泇
醭
脞
歘
泩
檵
棫
扺
俤
姩
鉨
荅
挼
肭
皐
惓
诪
輶
蟜
椛
輓
觫
盩
钸
伷
飴
镋
晙
羋
褆
羕
馱
狌
呬
祾
頠
犨
镎
聼
奡
鎵
赪
淂
囬
簰
瑧
寖
敤
祊
鲘
匋
杅
擿
伓
揎
昐
潵
呿
鏁
掍
閆
槅
鐫
婲
亇
碏
覅
枓
曚
虒
丵
螗
掱
竝
朶
洚
鮡
譌
铓
伒
祲
昜
惔
訖
猄
軛
墬
棆
趯
黹
冁
酈
梣
祫
鸊
槚
刼
搌
銶
谫
潾
粦
蜑
褀
橚
杻
犛
忔
糈
躊
瑒
塲
稙
唼
莣
髃
秲
暦
厔
殽
朿
摨
挻
拝
堨
菻
昞
泂
麐
覈
倧
籮
緈
櫟
鳽
妏
劁
鳘
鈑
蝘
筻
弐
冭
銲
鷸
擧
翫
韮
焌
鰍
綈
嚆
鬢
泃
恧
鯙
硁
妧
嗐
鍚
寀
赇
汏
揵
楩
驵
锊
鎓
胩
砳
獰
搾
酔
奌
鱒
渙
淛
骍
雰
姱
蔦
寃
鄗
燬
絪
岕
瞵
卨
鶉
镤
垞
锳
迍
剉
恠
蟓
愽
钷
鷉
镩
鍜
烎
硿
檨
齲
鋬
痖
襬
縉
栆
癎
鬪
讃
铘
匂
啣
瑑
妬
鲙
鞬
邲
檑
嫽
薺
歿
夨
胠
盬
齢
箠
苺
彴
嵙
襌
笟
峃
倅
鏐
邅
铹
穉
窰
醂
蓆
匄
霅
痃
嶓
姁
怹
煋
朅
巭
捽
爌
魋
匸
觖
玭
弨
騖
鯰
夌
噺
撚
砯
斶
澐
儛
奀
絀
刌
餸
筢
牻
亯
蘚
箙
垝
镃
廼
鬐
挿
莙
籹
暅
鷥
锿
粬
糇
熸
漼
偰
滈
杺
殢
阛
噏
択
乣
攽
飩
僾
鼇
卌
崄
扱
逺
怳
冄
軎
僬
憓
誐
訃
阓
旣
垍
赱
鄮
籙
濙
裈
霽
嘸
鴂
姌
閭
壱
堔
鬭
杄
悊
訸
媭
椀
餛
劊
吰
顴
樉
鲒
岍
赆
鰹
唪
諂
焮
鳋
秬
恓
燋
嬬
暍
濶
澇
讎
窋
媖
煚
鉧
軚
瑥
琀
嵒
桲
唃
趑
諉
菿
瘖
梾
恝
緲
岄
鰓
鱓
鴈
舗
癰
辀
鄀
憝
鷇
豗
觍
秂
郈
墫
俋
窊
唅
鐡
孿
坣
铏
滍
佫
灃
齮
宔
玓
冱
勷
冩
嬈
饦
嗈
擡
蹯
虍
鵪
倕
沘
褸
篯
劦
儸
猙
犮
櫓
臓
脰
廯
鲰
亸
悩
弌
呉
蓢
簍
颺
乭
緌
沴
佀
嶒
紝
溞
墚
阽
飡
鋯
扽
潩
飔
睃
畧
豋
仐
芐
缏
瞾
洊
紥
牮
嗘
湡
鴷
觱
硙
旴
麑
嗛
郚
臞
鳣
挒
筯
稈
伡
壠
绖
鉸
逌
溻
鸑
勮
慬
镵
砮
坬
丩
龖
憺
埰
媗
嚄
鏸
巠
脢
浵
晻
厳
熥
沺
噯
灜
堣
綪
摑
欬
猰
唭
顕
詁
鬬
珖
晄
鞳
裛
巇
嵕
羮
緜
藷
姸
橒
曕
爇
讙
靐
葰
枏
掭
藟
苠
牸
陊
閮
罈
杬
觿
犂
伃
迀
玨
坶
囓
禖
禨
墠
朩
呰
頞
慆
鉬
湑
歯
鶚
慱
嚬
堊
挐
埶
跼
鈤
棓
玁
湋
阨
濆
謳
蘗
爀
滪
瑝
縹
葇
髆
琭
鬄
蓰
嫜
錩
僜
晛
餿
盌
晬
敺
驤
熇
犠
橿
槺
嚜
朲
麺
杧
暕
駡
礌
鍧
餗
羖
瑸
咑
禥
臶
嚱
紒
觽
儵
囦
涚
鄕
脿
蠋
刓
沲
颥
鍬
諶
梠
驎
牐
鑛
嗙
閾
斁
睌
甁
磜
媿
鈈
吇
琄
甿
仚
壻
繄
瓅
蔀
戙
擼
盝
箢
卋
齄
匽
觔
狖
埫
皃
涖
貎
澣
潕
彵
坰
咅
髣
躜
藴
狆
綍
騾
嚢
鳆
覀
怊
眜
琁
礑
幇
詪
敻
堜
埄
俍
嶌
圴
杙
喓
垯
瓖
蹐
凢
戤
洐
栧
嚈
砢
椑
媱
獃
敧
壎
酏
筭
睸
嗱
鵠
羱
噚
崒
貐
韁
鍘
瓈
濇
晅
蜺
耢
辒
駙
愴
僎
齧
鬶
睱
璮
娀
咵
頴
廃
嫺
砕
鲖
禑
婓
耰
敚
跐
裑
釿
骒
嬭
竢
璹
亷
輮
甽
旉
瘝
銻
諴
陧
畾
腽
圐
讖
鹠
榅
遝
搛
啯
圙
鷄
膣
眊
嵗
濈
奨
鶵
鐐
踦
潶
剅
剰
犱
擻
鋇
蘘
眢
皁
軫
臯
搨
灋
槱
茻
攲
蒍
渶
縊
焠
耖
矰
鸛
裀
枻
鉢
謫
紈
煴
枬
纞
邉
痳
莯
饾
筴
玍
塁
潽
蝀
鈡
呣
卄
鹯
嫋
苪
帨
讒
舠
彅
厐
厎
佖
曁
髴
鏵
眴
犵
嗏
礬
暲
堦
扐
枲
癩
劐
餬
騄
珎
懃
痾
炲
詒
厖
鬨
諨
癟
姈
轘
滳
鍠
朘
覌
垾
僣
耥
顓
丂
漙
撝
驃
泆
枒
揜
鯡
桯
漤
瑈
愰
孮
嵂
閰
珯
锠
欉
雊
罠
濋
妡
彣
鋕
芔
戣
呫
祤
讐
懆
翿
悗
巵
纁
敩
吙
駰
骹
鈇
螚
繻
汸
鑳
褧
剤
咢
謌
戇
隩
鑨
稊
玊
唦
钘
楱
嘜
冦
蛍
邘
埖
犺
鈀
偍
洰
睆
岧
洅
縂
踧
莋
旐
枊
鷃
檞
賛
曡
雝
廞
啗
虵
婻
勑
垜
賅
嘒
叇
讌
褭
悾
岠
鶒
赿
榃
瘉
氳
櫍
摃
慓
嗩
翯
浹
蓅
骣
鐞
亣
戉
偸
氶
啴
圂
菋
哱
駢
鱵
铞
靰
睎
拡
哜
鯈
痋
愭
狋
蝂
裪
宨
佲
蟌
澼
釩
蛺
羴
鎭
苖
囮
頷
襠
耑
熛
榦
詟
磘
旡
斠
靨
蝞
叾
癈
庯
鉦
訐
吚
紞
抦
珌
蜎
枌
氂
隤
踭
刟
糵
櫶
渓
阬
焄
嶮
澯
羶
闐
醨
菼
倂
荈
罃
朙
塈
枼
咍
夆
頊
婇
峧
塥
汫
鍔
釒
璲
郳
亱
闬
諤
箄
獢
汖
腍
闞
訌
廄
闉
讟
祃
唣
飮
荮
歓
枡
旟
澛
氬
龗
衖
墈
噀
騨
胲
滎
盻
驁
嘠
斾
僊
畳
柤
蓺
弍
乆
鶏
儗
澒
巌
簁
劒
秏
稆
偪
錸
浰
壖
鞡
嘡
繘
疢
畇
蟞
箎
徯
惪
麕
絔
驫
諛
狉
湦
椼
飭
鍒
湅
仴
榣
憯
屲
疭
噂
輗
臚
魜
勯
亁
坋
偱
忳
貲
辁
纕
崿
欌
濄
沝
鱘
幰
鸝
牞
霨
萹
牜
榑
諟
誑
喼
糢
臏
畐
髄
棽
紵
韘
廕
鍇
楶
昽
赮
襖
犆
鍓
鱥
槜
峘
嚧
蝡
瓟
轪
篢
鏻
襃
痏
垿
刄
鞚
晫
頵
筰
孨
皯
庤
饤
颕
魎
鰤
駟
刕
鯮
帞
靣
褕
槇
篋
橈
釈
苝
鸂
虡
娚
糀
慇
弎
慭
鋋
鵖
魠
穣
镴
踇
苶
噭
褵
箑
貣
倴
粨
璦
昄
叄
琋
懮
悧
靘
躡
櫷
旵
啍
瀁
醁
芧
黡
牿
墣
偭
鄌
娸
寽
塨
啇
僝
漥
霤
愼
肎
鼔
蚖
琫
泘
禰
笒
棁
錵
犋
娒
螻
杕
悁
僂
徦
銙
敹
闈
儴
惲
鍱
醿
繍
迻
鹥
垨
垇
嗢
葽
巎
嘫
坒
鮋
赒
贗
鎻
欎
炰
墦
牣
檇
拠
铴
篳
詴
滀
儻
僽
箖
跘
侴
齎
熲
箞
殎
閬
踆
婥
妸
筳
毦
飈
癆
漃
隃
浿
駉
蔊
刲
櫜
囥
鐨
垻
傞
脎
莔
鞶
诐
袗
嚙
鶲
灕
闀
媯
嗻
璄
琱
澨
祌
捄
厾
嬾
漻
棈
憇
耇
柈
晈
蝜
鈸
咺
橞
笭
惙
麀
甇
鼒
巃
矅
瑺
峮
俫
翬
椏
朥
鯧
哊
鵩
鬰
婄
妠
獏
櫫
飂
牗
屻
鱚
鴒
晥
嚚
丱
璥
隄
灉
萚
铻
壼
缞
荌
壝
菍
蕥
窞
狔
觧
銫
媟
矼
宂
籣
秝
沋
柺
庼
萢
祅
埡
馿
爚
埆
晊
鈜
猟
鎩
塙
挷
嬩
媣
虖
鶇
閙
澭
僉
泬
軏
暟
釹
寜
鸜
訄
弖
厰
醡
嶠
翣
纈
歨
蒓
蒱
淓
匘
柲
遆
掄
尃
鲬
苐
裯
喨
冿
駹
眘
呡
贄
彔
虀
鈅
淲
墺
灊
楳
猨
綄
皜
瓛
燝
愨
蕚
跱
緾
壒
蹌
驄
耎
紸
箣
衕
匼
蠙
琣
酦
鶻
挍
崠
唶
輦
歠
熴
朢
嚞
誒
貭
纚
糹
躂
巬
闓
廰
箒
穠
芠
鸕
栘
廔
醲
筥
柅
伀
汈
膴
矖
罙
迋
輧
悢
苅
皊
潄
浭
嫏
蓨
慍
踖
瑳
嶃
醾
鴴
騋
雚
鞕
砫
躭
睩
閂
祙
渧
泜
愪
娖
錱
瘭
慙
媮
鯷
飝
焢
尞
曀
耠
桊
倗
頎
銼
艎
粋
矱
曞
攺
縵
灩
豭
洏
薳
粃
朂
瀲
夈
瑮
驲
鐭
貙
忬
茘
綯
泝
剸
鯱
韞
鑠
橪
椓
鞌
洴
裇
噐
鱤
槪
遡
磦
碕
屇
袿
佂
澁
橑
齷
鮍
琸
颩
睍
騮
茷
鉲
鏃
龂
筩
埛
荙
敭
銚
抅
惗
熯
檷
愒
簨
躱
茪
綔
鍺
寗
鮸
韺
綷
雘
鐻
旿
棡
诇
熀
猸
脤
牓
栤
娿
胔
欵
蔄
瀌
鳾
眥
姳
疁
謢
婍
奼
烋
矴
嫈
勦
餹
沷
攰
觭
鰈
猺
歟
甹
燀
囈
唲
疐
馫
澙
樰
蕯
螠
纆
誾
蓶
竻
淰
趫
奤
賔
薾
瑅
淜
咹
朒
襤
崱
咈
貒
斸
珤
咜
镮
枙
筈
蓧
瑔
媃
銥
瑽
枅
犘
槩
揞
僩
譭
炣
溎
涳
婑
佡
脶
夀
瘃
鸧
騃
悮
饈
糥
灈
磵
盨
犫
醽
逬
椝
愙
馌
藋
輴
苽
晼
酖
鉾
礮
幙
莮
彜
蓏
琿
廡
屧
铇
曵
畱
逨
歊
粛
硨
盺
纘
麪
篛
瘈
逇
嵲
岨
楬
瘣
畷
灴
椆
墡
庛
夎
刧
餑
揃
矦
鐤
溵
醤
矟
悆
尟
睟
洟
擕
僔
颣
剟
罇
莕
恘
鶺
蹍
赗
棯
茞
穽
湼
煃
苙
玼
赩
罳
簮
琠
迵
伩
绤
皪
喤
斵
枿
鎯
釪
錙
賒
鵷
鞿
褦
狶
縐
穡
浧
麃
貤
簑
洭
槀
鳠
茖
臝
縦
澫
檝
拫
帢
堮
佮
鼴
綣
齾
鈹
苿
騧
漴
抯
蛯
綖
瀷
棌
憟
鰥
粻
撣
鑷
鉥
誃
灺
嬶
儞
溡
眍
椥
攟
凨
筧
灤
硔
哢
褉
袐
綰
鹙
窎
娫
麚
撗
縴
扙
乪
饃
魨
嶗
凩
寑
嫃
圞
鷓
秈
鷂
湶
棑
墍
坧
靸
輥
絫
歜
拑
魣
檽
汯
汣
竈
饉
眏
揕
髢
帡
腯
縟
斄
艅
墎
憕
鰟
烚
涬
旲
閧
柎
憀
塡
侫
丮
秔
楄
舓
誔
竾
歈
阸
禆
癤
玶
惸
嘥
椄
桮
闋
崕
殫
嫕
稾
哾
籒
砠
鄡
璝
抶
渽
忼
蘂
黮
鏑
娵
鹔
淶
孅
鬷
蘄
兪
魌
馎
踘
泙
苃
瀦
愾
墐
剺
貮
昬
塀
芛
棊
婗
麞
庲
喩
鬩
媕
璱
吷
僴
陏
筎
辧
蠧
繾
絅
箘
鼈
舥
韂
穈
挅
囏
劘
阰
聵
猯
靉
坲
泑
晹
稉
殣
镸
稌
欃
荵
噥
碃
暪
騞
鋳
杍
恊
踡
踈
粠
泒
掵
黇
譓
菶
嫗
鱂
裋
荗
臛
俙
蝖
虩
湝
棅
鉱
蔕
楅
覊
偑
渻
鶱
耤
靭
瑦
伬
鶼
逈
褎
薗
旍
搒
痟
噛
窫
噷
蘢
薠
竤
醸
蕶
姎
鲯
腄
緥
琈
冓
侎
瑫
齟
潖
穜
枖
瑂
秞
夑
瀺
媢
噰
韾
苨
曶
髽
硠
冣
鉷
埳
竫
瑉
嵿
顚
脃
熤
輊
臿
犖
豖
蕣
鐏
鍶
冝
鵼
粍
鹴
鈽
艼
睠
熿
鬒
穟
咡
騭
薝
渇
趐
珓
毚
笵
涷
圇
懣
琻
煡
搣
弸
禼
痎
靁
輵
跕
澋
堭
鄤
翂
慤
伹
逴
囋
鎛
殀
焔
傫
骦
篲
玃
哷
伣
抆
嶦
壵
蓴
闥
祡
芓
牎
櫞
茓
籯
煿
謅
竒
嫤
銛
鄅
羗
稥
濓
梫
暀
痡
牷
摐
鑱
葅
璫
滧
蕸
篸
穄
敳
嫙
姙
譔
狥
渰
樅
汋
嬡
郙
瑃
槖
旙
茋
萐
疪
妟
颿
袨
扜
帟
鶗
鄆
緖
淈
挌
鮗
鄃
捥
扵
唫
轓
敋
尰
鴳
贔
穨
侒
赺
苭
岒
鉁
袝
抷
嬜
糺
飗
阘
蚿
鎶
貹
蠑
癶
褃
薿
牏
崝
霡
籾
摵
吪
鑪
甶
軿
粺
巼
荍
涒
簒
尫
踼
杣
頇
铔
愐
妭
虋
彛
娍
鞆
縌
氼
桝
喣
輜
崌
謩
蟫
潓
嗭
闗
晣
璚
儹
擃
崡
崍
壴
鋃
鱟
嶰
嫮
脗
湩
兺
闚
锧
昮
姇
鼫
昑
藭
麁
缻
汘
攧
涊
恇
剳
鉍
耈
燂
埥
朞
暤
埢
儺
礧
詎
冡
浟
迣
棩
黷
鯻
踠
崈
奣
嶔
鳁
祩
嬝
襍
疕
眎
栁
胕
渀
躶
畺
輈
畄
媤
偟
偊
侻
佪
鐿
絓
糼
煆
杇
蟷
禴
渢
椗
攖
秺
痌
椙
屭
裲
眹
珷
逰
浕
觝
翏
嗼
鉎
輙
獦
挦
拤
馼
緁
鴆
愺
泲
駸
緍
瘂
倷
蔲
脽
軨
捴
嘐
檲
椚
彯
饙
竂
黁
鶡
摂
塟
鞓
轕
欐
昖
痗
琡
藂
癓
漚
崯
坿
鑢
錧
鑸
翺
霫
挵
嚳
聻
獙
旽
嵜
剕
靿
岊
縞
慼
鰶
玅
湢
萫
縡
紕
籖
暼
幃
鼟
駃
簳
孌
鰨
豷
惄
帩
鷙
棃
晜
塂
嶪
昩
廵
娢
筸
瘺
饘
咮
鞄
厠
鯵
琂
坮
噑
厵
髠
誆
瞆
讉
斨
鳂
嶏
鬽
蓷
窴
敇
嶢
鼌
鄖
謜
漰
揳
屩
蝪
焿
滮
捒
秖
豀
峱
垈
穋
慯
侭
莬
莝
昻
嵓
逎
訑
梈
薸
犗
滫
惎
勧
傃
臠
懨
剮
紾
癭
瀯
屴
奍
鷁
牕
煠
漦
汌
檱
弆
侹
伮
蕌
荂
禫
濼
姀
勚
鬑
蘡
摡
鬅
韨
鍩
袺
玒
揷
儃
胾
巑
拕
嫳
蜼
笘
滛
楒
囃
劚
緼
糒
滽
扢
冘
蝢
鄨
袾
爔
栭
擭
揔
妑
鵄
犎
尗
孭
夿
瑇
墝
倀
鳛
嘂
漹
姃
鼃
釂
淍
忺
儈
辠
盫
掔
廱
啹
鋗
碻
宻
鰱
洤
摴
堓
誚
磏
猘
沍
侕
俁
飱
磪
鶄
跢
褋
妚
瑴
唝
倳
殹
頣
腨
粯
璗
琕
瀓
鶤
絖
皭
圫
勥
碭
尠
厈
眡
楋
愓
尭
魖
兟
虙
繰
衂
嫇
鴝
搊
饐
钑
罫
絝
坉
咶
傌
鉈
磝
漘
擫
尣
坱
倛
鴇
濳
斅
辌
謷
禠
溈
俌
洜
嶍
儏
諢
栐
恉
堧
煣
掯
坔
偛
螾
繊
緫
煵
杦
姶
頖
賚
簙
璕
壌
窻
煓
葹
綊
凴
袠
耏
掦
鸤
甀
鉭
竼
獳
臈
擣
圑
痁
淽
汃
蓚
愊
莤
搰
搘
躧
裵
熈
崋
癘
摠
夣
鏦
煑
杶
暏
徛
藳
殗
楧
蟇
栔
撳
嚦
瞤
皷
獞
牚
爊
籧
鵾
鮓
阾
蔠
簞
咇
倐
趖
釴
鬾
蓱
璏
齶
鲾
狢
焴
鷦
郟
潒
莾
茡
鯀
騕
搉
櫏
弚
鱧
緳
厯
匭
匊
悺
飜
陘
磧
韙
篴
檛
鑅
遖
琌
喿
秊
矝
枍
湭
跧
薍
蓽
腷
磞
宼
虯
潿
蠭
扠
戹
鴗
肙
磈
楡
彍
胷
魩
酓
鄏
衜
釬
緗
獚
犉
襛
璅
疌
詅
慴
啀
卪
橓
岏
妱
黈
馂
朣
寕
稡
潥
鈮
騩
鋮
蹏
誴
饍
睘
轝
絣
猼
滺
摖
骫
醰
柂
彄
鴫
薌
檃
鱽
楉
桭
舝
秪
愃
鯁
邐
縭
緃
鐍
輅
詺
虉
籝
駼
踎
葴
汍
潎
嶧
墹
鞻
璊
飇
磥
瞷
瀽
堝
堈
麄
駑
猒
榚
謖
磑
舃
祄
琖
玞
焫
溓
墭
嗃
凘
僡
鴟
顢
畮
搤
壷
滱
蚘
槵
眽
抲
僄
麰
珫
檮
棸
蹡
褾
疂
覔
褘
緇
撢
抝
咷
謿
肧
鯭
鯪
缾
瘒
寍
錂
袵
罛
彠
蘤
繦
阤
螘
舩
奻
卭
鼉
霦
譩
篨
乥
鱺
礿
懍
孋
僶
傔
黓
饎
聤
秅
刣
罏
礱
捊
鑚
竪
鮄
萮
燫
暒
恛
煻
榾
銍
硾
砆
渏
薖
簺
璙
峚
穅
稺
砅
峎
塋
堼
糉
硊
蹾
鳒
昷
掹
姖
鬛
踶
蟅
婌
麌
馺
轒
萯
嚤
璵
鳈
釔
鄷
爟
踨
磳
掁
鵯
鴜
鞺
蝱
媌
蔎
碔
澽
潪
彚
冾
骭
炑
啅
麛
輳
爁
剗
肶
歭
蚑
聨
粩
祴
鹲
蹱
蝷
纒
矓
瑬
徏
觕
窌
璡
髳
貆
蝃
膤
梂
暵
壄
叅
訔
粎
珒
纇
眕
湏
宭
蝝
欝
樕
妜
囁
刦
鱣
酇
蔂
琜
曒
捀
俽
灂
睗
璬
玾
檣
胐
簴
硍
燡
噲
鴃
瀜
钁
榞
崘
嫭
臷
甞
媠
蜨
籛
澘
摎
凓
蟟
爕
楿
埿
兿
僤
龎
跅
襭
珃
轤
屝
猻
栂
觶
頝
谼
牼
柶
蜋
摜
廐
紃
蝯
櫽
喌
鵻
虗
湨
榥
朑
鎡
梴
枔
塼
凅
佋
坆
逷
讻
畵
撋
圠
鮊
膰
櫑
釷
輭
桼
懞
龏
霝
諵
峫
硋
鮻
礠
嶕
凥
猧
氊
蚳
痀
抙
懥
趆
稭
欞
饜
皥
欂
怗
傎
鱊
焅
嘑
俷
萂
繐
悤
徤
蟢
糶
炓
驌
髾
蕝
棷
鰺
鄋
潬
慠
儜
襚
碪
琞
垔
蕷
臮
秵
氎
菐
靧
雟
碽
檊
槫
菾
媓
磹
瓻
玿
駪
馉
簉
礨
杁
喒
佌
鮹
馹
錀
醊
苰
艻
矉
沜
鎞
鋏
禒
鉌
鷩
胘
慽
媂
靫
銪
賙
衺
墌
隺
蹅
礵
檦
埮
阩
溠
欁
幨
塿
顑
艛
娙
礚
嫀
妌
鳰
隮
轡
繶
笴
僙
澚
抳
鷯
縗
籇
笯
塜
鬋
蛣
崶
儱
鏜
鈚
蹢
謡
葠
梉
噣
罸
捔
厹
剚
裬
絙
盭
爯
澞
枮
弜
鳷
頳
釨
禡
嵸
鼕
鷘
鯥
羓
夒
貟
盠
瘎
汳
餠
絇
溋
帹
妀
蔿
芺
昢
僿
紩
洉
奊
澠
憌
屟
逥
騂
螉
紆
竉
瞫
嵨
袚
絰
怣
墪
醄
暔
飊
呌
釡
胻
獂
裓
緤
朳
葓
宷
羾
甎
軱
谺
屰
酅
罉
馡
箾
檉
惽
骻
辤
煟
欑
忲
奫
刵
傪
鴠
礜
欥
燨
淴
抇
峿
痷
桹
慒
恡
帊
叀
轇
痓
焾
崪
懌
惵
鋩
瓃
毉
暣
埑
憸
踳
萳
淐
惒
餧
諌
窛
弉
颻
陼
諕
氥
帉
騶
靷
蹷
倰
陹
斮
廇
篜
篘
篔
羭
籞
烇
謋
慅
鳧
籩
昣
諼
穾
瑿
蘽
毱
楖
侲
伭
頟
琾
鼪
褝
衵
蟯
爓
漑
餂
酳
訆
燳
楟
椶
揅
騊
賾
葒
壂
伔
臙
桱
昦
嚻
匁
凕
儔
鼂
隲
筶
珄
玪
漍
楻
啚
凐
趠
蠪
蚮
皸
泹
僈
駈
鞗
蠏
舏
絻
歂
弰
櫙
偢
鴯
秠
嵽
凮
鵕
磎
鸒
罶
緺
潚
梜
鍉
蒧
祋
搕
娰
坽
鍮
欿
鲪
韈
艑
胹
窔
悜
戭
廥
鯢
赻
虃
霣
軃
躑
菎
嗹
鮣
閼
訿
荓
膋
猲
詶
綋
烕
溚
廲
娳
堻
乿
蹕
葍
洬
欶
橧
孻
浌
徫
啘
綀
禜
抭
嚫
鵞
馞
粔
漎
魴
頩
讋
碦
珸
曧
攠
趎
褌
虨
穇
菵
獓
襆
玵
漋
翜
珔
邿
藎
磗
碨
儅
颭
韎
諝
葘
檥
柆
鬴
籑
柮
拵
蹔
燖
嶈
偆
鸀
遰
薶
瘑
潠
巏
姺
邆
茢
剼
褷
仭
薐
慉
廮
剏
萛
槥
廘
嫊
唓
劔
跲
豲
渂
骔
鉽
琙
嫨
壈
鬖
蟏
莟
憹
嘽
騤
擥
鹒
鰩
纑
槼
墯
莚
稑
鵎
魊
雃
豮
薋
脡
臡
滶
婤
伻
鯇
碢
汵
惏
颷
詻
歾
檟
抌
劖
鄾
蒭
秓
頍
獝
敼
啑
黿
闃
垺
榤
嬃
顇
皡
髲
皌
櫳
梀
鐇
耹
綹
瘏
儳
乨
鱠
訧
蟺
萭
杘
儦
蹜
谹
楺
藘
羬
徲
偝
霿
陿
訽
粈
瘞
朁
掿
垶
詤
窷
櫰
昹
謏
詥
癹
熖
鬂
鈰
遬
絁
峳
伇
乽
駴
詷
窐
牊
弮
卶
儐
跰
洝
彇
鬿
韝
輹
躚
籊
獘
搲
髧
鍭
縆
偘
臢
偞
蔍
麖
菆
紪
嫿
饟
芚
禂
峆
虘
郘
臲
秌
濎
勱
凧
鬙
骳
譖
睊
囀
衟
苚
戔
卼
跴
瑹
晪
擩
巙
齜
駬
譮
蔞
鮒
鋀
讁
襴
熣
閈
賫
紏
獮
湙
扊
婔
乺
篰
禬
癙
鴎
鳦
銕
蓭
乹
酧
苲
鞵
羛
竚
瑍
摋
慿
唗
齏
軑
讜
淢
壐
胊
洀
朰
墄
劌
僛
齕
黦
鍕
灡
惷
啎
叝
鶹
靃
贌
榠
麏
騣
谽
蠁
禓
橅
媼
襮
潨
懰
簹
婣
趷
縕
玈
瀮
扅
叞
魾
闟
萡
瞏
檁
柀
掫
綃
灅
頦
蛃
髤
芿
祍
瞶
眅
媦
鐶
蹛
赬
鼏
醧
淟
墱
侅
瑎
猀
氒
螮
煁
楕
饳
怮
諐
脝
祵
檍
戺
圔
駜
釱
襈
蟉
鶂
鋂
遫
衠
礒
瞡
甆
烄
昛
鏓
褢
蒢
臤
奰
豝
狦
瀙
淥
涍
挜
彲
孼
餜
瓓
齰
鵁
騠
衱
凞
飫
鄐
蟧
緅
眔
廧
峞
塉
僸
鑃
潀
裿
衋
藇
薉
絭
杝
礩
暰
塤
嚘
郋
埨
喭
酘
襶
絿
熞
滻
椸
鞟
雺
陦
橴
弝
髩
鞧
襀
縿
旝
鵸
鬵
虁
梡
斆
堁
刐
釤
譊
猳
桵
黽
硉
畟
枑
恌
寊
鷖
輠
蔯
箚
溰
姼
鷰
蔇
烓
袯
硜
孧
媻
鍳
絏
瑲
鸴
鸇
鶖
鵐
虤
筀
爞
桪
曢
倈
鸎
韠
皶
灒
汱
樠
噇
剫
凗
俴
觹
箮
暳
貛
曮
扤
峗
贀
揻
弬
鰧
鰣
虸
猂
冔
胦
羢
爜
刴
蒳
橖
暊
巰
堄
颒
鋄
醳
綌
伌
蹝
甒
騲
頲
諓
蠒
縚
縋
篹
甝
炌
銠
鄽
蚹
藊
簗
擸
帤
壙
鏛
鑴
鏹
醻
醎
虣
簜
巋
鉶
誖
湞
傖
瀠
湆
鉋
濵
抎
碞
烶
楘
偒
蝍
礲
緙
汦
憖
愩
婖
倎
鰎
閶
葊
曏
鷿
迾
讔
筤
帬
峍
壡
侜
韔
瓹
怤
勄
鈏
諆
蔈
蒪
犔
坴
鷞
鶬
鵶
閴
踸
耾
穵
硹
瓧
灐
鸃
鷈
馝
飤
肐
氀
嘷
鳲
鱄
鞉
篭
漀
塯
黌
躩
袥
蟈
蜅
肊
竨
鞜
鞈
郲
畖
涽
錍
摫
拲
埪
鶠
鰯
羜
罻
粏
髷
闤
轢
蠚
槮
婈
貺
蒦
纎
涏
楥
厪
凟
軰
藶
蕳
晽
妷
垉
錒
稧
揫
慁
唊
甂
澓
娬
騉
籔
窱
穬
櫧
蜯
蛚
鼛
隟
毣
塏
馛
觻
裩
矷
揥
憗
鬺
謟
瞉
挏
懹
嶟
鐬
衶
羵
玝
鐄
蹎
襢
剴
鰐
耉
獆
髇
鐎
盋
崷
圎
覡
焻
櫱
堲
俀
朡
曨
庬
妶
侌
詖
粶
嶻
姧
颸
霱
鎋
膍
繛
矠
櫩
瘄
牃
鄎
甔
澟
憘
厫
鷕
逤
菧
嵞
醖
荎
澺
旫
覘
縑
煗
屨
鴡
釙
豻
甖
劅
偫
餖
蓘
灧
杗
摏
餤
韣
琧
撦
轑
蟭
碫
煢
鉺
罭
痆
腇
瓀
熁
楎
鄑
竛
珱
鍣
歕
匵
儌
俈
鮃
蠆
琔
溹
弫
鯸
陑
貜
紿
糓
旹
囎
匃
鞾
邔
胏
箯
氄
飣
詘
劙
襫
蔪
縰
渞
擖
鵹
驖
鎸
薴
夞
凬
驔
訞
昒
尩
螲
瘬
沶
賹
誄
葧
耞
狫
扻
壍
靆
聦
翽
熗
斒
敆
嶐
俹
鵀
靮
鄪
檖
惼
泿
敯
嚑
乬
躃
覜
糽
旜
抏
遟
蘵
葐
竁
噆
駓
肹
竩
飹
蕏
玜
娎
麊
鬌
罊
樝
鰌
蹵
踒
殜
暶
鉿
釄
輀
萻
槰
灨
峝
厤
麨
霶
霔
隥
觡
痚
黵
陻
螱
欍
溔
姢
黶
魫
鄛
罋
箵
槉
趂
褠
蕋
瓸
颰
蔃
缿
黕
鐃
裌
艖
鮆
澦
梐
墸
鶋
鏳
璒
檡
鳤
熅
矐
棖
廏
嶀
嬙
趦
檭
抴
婩
遌
愞
蘺
粸
睅
欀
岪
岝
鬹
愻
鱍
銊
鈁
訒
翧
磓
潝
齆
褖
櫨
齗
鱮
覂
腲
疈
瀫
噞
銩
鈃
蘙
瀄
漒
岹
駞
蟶
罦
烖
幐
賵
獛
嵷
墆
顙
孴
鰋
疿
湻
嶭
鵽
醆
軧
蟴
騅
釃
賷
旔
鰼
澸
棔
匳
鉝
綧
瓐
璷
鴽
陾
鎦
螿
乻
鯔
髱
訬
裦
毼
鵔
貰
緐
簯
塠
哤
咠
齅
骾
鍈
馵
陗
鮦
輼
繅
獧
歗
宩
鏌
郺
櫬
恟
幠
鐓
穮
奩
鼄
鸆
靇
鐔
鉟
謑
嶴
鐠
賩
鯆
禭
瀴
抈
鄳
蘷
膙
耡
笲
矔
榰
弣
鴥
鏨
襘
茒
玀
橜
椵
憒
鴸
鮧
闠
椷
拺
虆
疻
昈
攱
贑
璛
櫤
傯
乴
縩
盚
瓉
飀
袹
蓲
錣
僆
轗
輣
鋙
糘
穱
秹
歅
憻
妵
塸
伵
驂
闒
釚
裻
蘀
眂
僷
釓
葂
腶
嶤
蠮
繮
煪
峛
黳
鞹
軷
礀
犑
烻
攦
蠸
胵
毸
轊
縲
煏
揟
駏
鉩
轏
頀
鞀
籜
笻
潙
帗
鸌
轜
碝
竮
噳
賮
譍
虲
皻
欦
慦
鬊
酄
耼
祱
燇
毰
鬳
鎜
柹
幖
鵏
鮌
駔
韍
豵
嶞
僨
邞
翷
梌
餱
緉
稏
櫝
樏
椳
哵
黅
鞸
軮
甅
幮
黤
鈧
賻
睔
鷔
腤
瞴
湗
搮
憮
嬟
齙
蚐
綟
徖
噦
乯
閽
鋨
鈒
覰
腟
呏
罖
簤
鷫
鮐
毇
醓
諰
糪
癨
瘲
甼
焭
駵
煔
渳
駘
獪
媅
閿
覉
磶
瓺
謵
欫
藙
鵉
誶
乼
鶢
餳
蕘
餕
軄
犙
揂
憃
悘
屒
喕
厙
錆
璯
頮
蜄
繂
匨
饁
痥
孁
鸘
奯
匑
幦
寱
騢
輨
糤
齘
謤
籶
勨
僃
灳
嶚
斚
醥
軥
讇
炧
軹
詃
穝
磣
顦
蝄
碙
聎
砛
嚲
鼳
蚛
蕬
綳
矑
顋
郩
蕢
馽
楇
峜
塣
繯
籋
矹
玌
櫿
怇
頯
疶
隉
閁
鄟
蜰
绬
麅
鈲
蟨
慡
幩
飦
霢
鎲
緆
趹
蚠
甧
檋
寋
覿
緄
綞
獖
憄
鹸
疨
犣
鼖
鰛
轔
蟁
怉
飰
篒
疜
壚
趲
艤
罎
戧
嗸
劗
鑹
癉
潷
勩
輤
覠
踀
詗
錛
腉
胒
殥
鈄
趇
偗
躓
覫
瓼
猐
厧
鐌
謼
蛂
葏
儥
齓
贙
簓
櫭
戃
忦
鄶
蘞
礂
寠
闑
鑕
撟
萶
旞
庺
鍆
覯
艕
硈
獥
瀔
撏
鯗
鮶
肍
傐
鈳
鄵
蟂
糲
髿
踋
錻
覼
罁
灻
徰
搱
尮
厊
鸍
醼
迧
砞
牔
慪
骪
钄
鈛
糄
湈
鋱
蕕
緦
纊
稐
皹
譵
窶
禞
灄
潅
攛
黭
絎
櫇
凒
鵊
湂
巗
餎
釅
誂
襗
蚫
齠
諻
翵
漵
槒
鵓
譾
儙
鈻
虳
挗
鎿
鋦
賱
翑
襉
茟
桍
溗
櫣
楐
鏝
禉
鎄
慺
颮
遉
贐
蚟
茾
耬
昘
幘
絍
艈
榿
諘
莻
紲
傹
聫
姂
傴
粴
潱
譸
祮
皍
曑
蠨
薥
秿
幬
餼
錽
賳
褳
腬
繏
硻
矀
幜
鵂
闏
蜖
摾
钂
趶
虥
艫
磽
涱
僀
鍸
衐
鷌
鮔
軺
艁
筃
枈
顭
巹
崸
侚
佄
餦
贘
賲
蠐
蟽
藧
疦
騦
脻
縶
穘
撯
餫
覎
蛌
腖
湤
頏
蜁
蘾
贜
薟
艩
肑
斏
匢
齔
驜
諞
緿
禲
盀
煍
敟
嶁
魰
鐒
褺
簀
瑼
夦
傏
趰
晑
娂
趽
覾
覹
噕
轣
貋
筙
皟
鰉
稨
擑
萾
矡
幋
皾
畃
潌
軈
肗
罆
絤
糛
箽
樭
壋
辸
觢
藬
脨
晎
崓
坄
匬
騗
蛪
艣
艆
瞝
炄
杊
鰒
覄
脴
秐
猈
瀭
斘
悏
嘋
軙
虶
聹
篎
硸
皳
曂
忷
孲
凲
簅
獫
攄
廫
幉
媇
韉
粚
禣
柗
剄
魺
胇
耭
箲
椢
鶧
蛶
胋
繢
墵
鯐
鮢
遧
虝
聢
秗
巐
貦
胟
磌
槣
宺
娊
垁
郣
觤
稵
圦
鰵
鎃
軠
肔
柡
剾
鷛
軉
肳
瞕
犞
嵶
鯳
驧
輇
疓
曗
嫎
剓
鴰
鯎
銢
誯
硟
痭
欭
齈
釫
遀
舮
繓
緕
涻
墛
鸔
韟
跉
碂
欩
塻
釥
褤
藗
艊
舧
翞
翇
綆
簐
瀻
拁
唺
鐂
賯
礆
硢
砓
漛
榐
怬
婽
鏷
貖
螩
蕽
粭
碋
矃
焀
鵒
錟
跭
藛
蕔
蕆
茊
罀
玸
煫
櫦
媝
唜
軐
褬
羳
磭
徚
蛿
芖
灚
堏
鰄
餰
錺
蔨
膒
籎
窧
矏
埉
咞
駩
讗
諊
菞
艂
緶
紼
喖
趥
贂
讏
虄
粀
簼
箺
竏
盕
焽
濢
氌
椺
擙
幱
鮩
鑜
鎠
蹘
聭
糑
玣
烥
欼
靍
靋
鈟
軡
賧
蒣
聥
煂
浖
汑
梻
幒
鮞
覐
脼
紣
矪
熩
鮚
鬗
陱
珳
幥
麭
霴
覴
覣
褨
芌
穲
睓
槆
勽
鋟
郶
軣
藖
熡
濥
漝
庍
尳
孯
嬀
邖
豂
螏
崜
僺
顤
軗
賶
蔩
礢
焎
炂
撛
婨
嗴
傟
鹺
鱌
靗
銏
訋
衴
萞
萖
聬
耺
瞦
瞔
爡
憈
鎇
詿
訙
蝊
蛝
絊
爳
槧
暽
晇
擝
峲
厴
鷆
鱞
錁
軅
跊
聺
聜
緽
綐
溌
墔
鼁
饄
醔
螦
磸
燷
熽
炇
旕
慐
鎑
軇
貥
讈
艝
纅
篫
窤
礷
焳
焈
涋
搸
妅
嚌
馷
饚
訅
脵
爙
殨
揤
捠
愹
嶩
墂
嘺
隭
遦
蝧
蚽
耟
絴
燩
鼭
鱕
雼
鋫
邎
訠
稫
矈
燤
洕
暥
傄
骵
靎
雭
鎤
蜭
蒵
艜
耛
砇
瀥
澃
嚠
騸
韚
軩
謽
胢
縧
縘
竗
穯
硽
睳
烪
愑
髸
騥
飅
郆
趀
謴
穳
湺
檘
樈
搼
怟
嚍
哛
鵨
鎫
踻
訲
袰
蚙
氝
栍
忶
嬊
媩
夁
嚪
鶳
軤
踷
諙
縨
稩
癚
欔
鮝
颹
镻
蟣
葤
碀
朇
幊
麠
鶐
閊
釛
躷
諚
褮
薣
蒷
糮
焩
塒
鶦
騇
隦
鐰
錓
鉇
遤
趝
贎
諑
訍
襑
衦
藱
蔋
磀
焷
樖
昁
髰
蚒
蕄
艡
縜
稤
瞨
爘
燺
沎
棛
梤
徟
弳
嫸
姭
嚉
雤
鑥
鐷
賕
睵
爦
崉
鮽
鏔
軳
踗
蛠
薒
磮
澝
毿
毥
壭
唟
頢
靵
鑘
贃
褿
蘈
莡
艢
癁
猉
殦
歄
檅
抸
愂
豴
蚎
艠
穕
爴
煘
濷
劺
鑍
錷
錃
銟
醀
蟙
葀
糏
竌
疀
爈
焁
櫠
梙
劸
儮
騼
錌
銰
豾
衳
蔒
蔐
聄
羪
縃
磫
矋
眓
毮
捑
徺
嶳
噿
鱹
輽
螥
萒
絈
甉
懏
傸
鶕
騯
駨
靟
陮
躿
觨
襅
裫
蝬
絉
紎
籅
爒
煰
溨
毤
榁
憉
嫅
奟
奒
勜
鉙
躻
蘃
蔜
絩
糡
稶
炿
楾
揋
廜
嶎
峌
埐
鱛
髛
躀
跥
贚
覮
襣
燪
焧
渆
娨
奦
塦
垑
喸
侤
霕
釻
覟
襩
裐
耣
糣
穒
澩
廭
嘃
勈
靾
闦
鉕
邫
軁
藅
胓
聉
翸
槂
厁
匓
齨
鰀
鮙
騴
鞰
閌
遃
踂
誁
腡
耫
礖
熃
浳
欳
揯
憏
嶥
嬹
媈
勂
鷍
鮾
騽
騍
颫
陙
銽
豠
疩
牄
淧
歚
斊
嬕
嚋
鯫
閳
錹
鉪
蜶
耯
耓
纝
籡
熓
熍
焤
毩
撨
岲
倊
鵭
鮛
髉
顲
鍽
錈
豥
裍
籷
竰
穙
碠
熧
炍
欜
榌
擮
撪
懖
嵭
壪
麬
馩
顪
錅
癄
璳
爑
澵
攊
傇
鼼
馸
餇
鏲
銺
鄥
躎
譗
覱
蠴
蘏
絒
笷
擜
擌
匥
鑝
鎪
銌
釠
軂
誈
襔
蘎
蔝
焨
炈
槞
梑
攚
愥
騔
鑇
誟
訯
襇
袻
蠤
蝆
縔
瓭
暷
屫
鱜
鮖
镽
鎥
賋
蔶
聓
瘶
妿
麶
鞩
鋵
趘
諬
蜝
蘍
穥
瞸
爄
慀
囅
鵍
鰸
魲
髝
鋔
躵
諥
訵
螸
縙
糫
慃
廤
鵦
鵇
鴵
鳨
鑬
聈
碿
瞁
疅
瓳
瓰
瑻
崻
勓
齥
鵿
鵘
韢
鏫
錜
鋛
鈬
郌
貾
豧
豟
譧
藆
糐
灛
欕
憦
愱
忰
顂
頛
霷
闧
閐
鑩
鏎
賆
諁
熫
潉
樥
擶
懛
憥
駗
鞖
閯
鎉
酠
誛
螧
縬
樦
榋
梊
擹
揧
掶
頶
闣
賐
蟍
穓
礍
灁
橣
憠
鳬
鮉
髜
鞐
鏭
鎎
鎆
鋓
鄻
蘔
瞺
瓲
烼
橮
啢
鯅
鋴
輍
蒕
萙
曥
鷝
鶜
鴤
遚
蓔
猌
犥
爏
漗
橌
榪
忁
媑
鷠
鱱
騚
駀
鑎
鉜
醈
聗
徿
鶎
鯍
骮
驇
餏
鏿
錴
錉
鈝
覨
萔
濻
淁
婮
鯲
鄓
謒
襰
瘷
瓱
瀐
潂
柼
懄
儣
儝
麙
飷
顮
闎
鑧
釞
襝
灍
橳
鶰
鮲
饖
鐋
鰖
鮼
駳
馾
韼
睝
嶖
麱
鶈
駎
餆
鑆
鏥
鋝
緓
榩
梎
鶍
鰘
驑
鏯
鍲
躸
覢
獤
橻
嶿
鹶
鵥
駲
閝
踙
溬
歵
樮
桏
鵢
鴧
鯌
魥
鈠
耮
驋
鑦
銁
郒
嫹
鯄
橬
饓
鯂
嬦
鵈
鯜
齭
橯
駯
檂
麲
．
―
`
－
–
％
﹣
﹏
⑴
﹐
⑵
｜
１
＋
＿
﹑
⑶
＂
∠
３
２
╭
╮
︰
］
［
５
＊
⑷
４
＝
⑨
∶
６
＞
７
＆
８
⑸
＼
⑩
￣
＃
﹍
╯
９
﹕
﹙
﹚
╰
﹝
ヽ
⒈
﹞
﹒
⒉
⑹
０
＜
⒊
ａ
‐
﹔
⑺
﹪
⒋
＾
㈠
⑻
ｂ
㈡
⑾
↖
﹡
⑼
ｃ
￡
⒌
﹖
⑿
ⅹ
ｏ
▍
∵
〓
ˉ
⑽
㈣
︱
ⅷ
㈢
ˇ
┊
ㄍ
﹥
｛
｝
▌
﹗
ⅸ
､
ｄ
⒍
⒀
･
ㄟ
𠀤
⒁
⒄
⒎
ｔ
ｅ
ˊ
﹤
ｘ
﹌
▓
ｑ
＇
𫖯
⒂
ㄒ
ㄉ
∣
ｓ
┯
⒐
﹉
⒏
ｎ
ｉ
▔
╥
︶
❤
㊣
⒃
‑
ｍ
ｖ
ㄏ
✓
ｈ
㈤
▎
ㄖ
┐
┑
◢
▋
￠
∽
㎜
⒆
ｐ
▂
﹁
｡
℡
⒅
ｆ
ｒ
ｌ
ㄋ
◤
｀
┌
∷
℉
＄
↘
⒑
ｊ
﹋
﹂
ㄇ
✔
ｇ
︵
ㄥ
𫔄
ｋ
﹢
﹛
𪢮
┍
▏
ｗ
╳
⌒
⒒
゜
ｕ
﹃
𫓰
┇
ㄊ
𫚥
┆
﹎
ⅺ
﹀
ㄈ
☞
゛
⒓
﹄
ⅻ
䜣
┴
︴
𪟝
㈥
⒛
∮
ㄎ
﹜
ㄔ
ㄗ
┘
︾
➤
ㄦ
﹟
ㄌ
∏
﹦
ﷺ
︽
︿
㈨
𫖮
ㄐ
↩
⒔
ㄓ
㈦
┨
ㄛ
⒖
ㄆ
⒙
◥
ｙ
﹨
⒘
⼀
┅
⒚
㎝
┋
⒗
┦
䃅
𩽾
⒕
ꄲ
𩾌
𫓹
◣
ｚ
☑
´
⒇
ㄣ
𨱒
≌
┮
ㄤ
┤
㳕
𫚉
▷
↙
㎏
𪲎
ㄑ
✦
㈧
▉
▊
𪲛
䶮
ㄝ
┪
﨑
‵
𫏋
ㄕ
∝
ㄅ
𪩘
﹠
ㄩ
▇
𫍽
￼
✈
𫓺
￭
┕
⼈
▕
ຫ
╃
ມ
﹊
𫚔
✎
┲
╬
┖
⼤
￢
┒
⊿
𣸣
┝
┥
▄
𣱝
┞
╁
∟
𠮶
𪸩
ⓑ
𣐤
❖
𪫺
┰
┠
⑪
𫚭
︳
䌷
┈
㭴
ⓒ
𫐓
︹
✪
≦
▅
┎
︺
▁
㳡
❶
┟
𫄨
︸
ㄠ
✿
╂
┱
㈩
¸
ㄜ
㑩
❷
𣨼
𦶟
ｽ
≧
㓥
◄
┙
𨱍
ヮ
⑫
➢
ㄡ
┚
╋
𫊸
︻
㧑
┢
𤞤
➡
┄
⽤
┼
┩
◀
𫊻
䴙
⽣
𡺃
𦼖
〡
┿
𪨶
ꁹ
︼
☀
㗎
㖞
𫘧
⑬
♫
𨱄
▸
𫄸
𦈋
ꂃ
䓬
𪲔
⾏
ㄙ
𨰾
☛
┧
𫛭
☎
╀
❸
𣃁
❀
㖊
♬
𪾢
䴘
ㄢ
𠡠
㹴
㆒
𦈡
𫇭
╠
┭
𫓧
⑭
ﾉ
⭐
═
𤩽
𫄥
ゎ
◈
𫉁
𫛳
𦛨
⾼
䇲
☺
๑
╄
ㄘ
ㄞ
⽅
㭎
㚻
⽂
䴕
𫖳
𫛩
✕
𪽈
𫛶
⑮
⁃
䝙
⼒
➜
㶉
𪭢
⁞
◾
䜩
◉
╲
𫚒
𫚕
〣
╣
䲢
▫
⼦
ⓓ
ƙ
䓖
⼯
𫍯
𫐌
┉
𨱇
䯄
⾃
⇐
䓨
┡
𠰷
⼼
◕
𫄧
⑯
𪲮
㏄
䲗
﹫
⽽
𪣻
ﾟ
╙
╊
✍
𨻰
⾯
𫗧
☼
❹
℅
𥆧
‒
ℏ
𪾔
╅
𪴙
︷
𪻺
𫐐
✧
𢬍
┽
ⓔ
𣏢
𤾀
𫐒
𨱔
䴓
䓕
𫐄
⼩
┻
⬇
⽇
𡒄
❄
︙
⑰
𥚃
䌹
☟
𫘤
⼊
╔
𫗴
𫔍
✽
▃
𫐑
𫗞
𫓴
𫗦
㕮
⌘
☜
╉
㷧
𣲗
𩾃
▆
䶄
㴋
𢙐
▵
ⓕ
⾦
⚠
╚
⽬
㏒
ϵ
♁
䳍
˜
㔉
◁
┷
ⓞ
㵲
╗
⑱
𤣥
𫛞
𫘝
𩠌
♛
▣
䲠
➲
┾
䲟
❗
𫐉
㳇
ꄴ
ⓖ
𫛸
䳭
♨
✭
𫛛
𣘴
𢽾
𫖃
㎎
𧏖
㡎
✖
䅉
╪
𦰏
𫔎
⑲
𣲘
𫄠
￤
䦅
❺
⼿
⾳
┸
➔
𠛬
⛳
☝
➠
✤
░
𫔂
𫄬
♚
𠯟
⟵
𫓩
✘
𫔔
▻
𣗋
㮾
𫓶
𫗪
◘
𫛚
𫄙
䅟
㊙
ⓗ
𫘨
𫘜
𨱎
𫉄
➟
㐽
➞
┵
⌋
𠇹
𪨗
┺
㧏
╈
𪶄
𥮾
䂵
ⓘ
䏝
⼭
⑳
𫔅
𪳍
䍁
𫄟
𫄛
𨱅
⽔
ɿ
╛
➙
✌
㐷
⽹
⽴
𠋫
𪿫
𤰞
䴖
ˎ
𫘦
㎥
☻
𥬠
╇
╆
㺢
╤
𩾇
❈
㹢
𫗵
㑹
⽕
✰
╟
𫐖
㻋
⼠
➥
☯
㧟
✩
⚡
╝
㶲
❥
⾥
〢
✚
⽐
✉
𨱏
❂
𩷶
┹
㼈
⽚
❉
♤
☂
𪺭
⸢
𫍙
┶
𤨒
㆗
ⓙ
⌈
⚫
⸥
𫕥
䌸
‾
ᠤ
❯
𫍢
▒
ｰ
㬎
䉤
⼆
𦈌
𫚢
ⓜ
𫇴
➣
𫏐
𪡏
ｲ
⾊
⭕
䲡
䗖
䄉
ⓚ
𫚪
❁
▾
╩
ⓛ
‣
▴
〤
ⓝ
𥳑
﹩
⾄
𥩟
䱵
⾸
ﾊ
䓪
𪻐
ⓦ
䱛
䴔
䃟
❻
⼗
♢
◼
⽆
◑
᠂
𪢠
𫚈
⽉
𣐕
㫃
𣎴
㆖
𦈏
ⓡ
𥐟
𫔶
䱻
㥪
❏
ⓟ
𫆏
҉
𨱑
䱗
⚈
䁐
➊
➁
➀
╞
𠺗
𫂆
𠱞
𫜁
𫍲
𡃁
㛤
╨
𫐘
〸
➽
𪪞
⦁
𣴓
⾮
⬆
❞
⾝
╦
⇢
䴉
ฅ
︒
〥
ȵ
𫎬
𡒉
ﾞ
☰
╢
⻄
𫔰
𪉈
𩙥
𨱓
⼴
𪨊
𪎊
╜
╒
𦈉
䄂
☐
⋆
҈
𫖒
𫚙
ˑ
ʨ
㠯
╧
ⓠ
☪
➋
╡
𫘥
𫚋
𣗊
◐
⇨
𫌨
𨱌
✏
☘
╕
⋮
𥓓
﹅
☽
╘
◍
▧
╓
﹘
𠝹
⽀
㩲
⾹
∎
𫄷
㆘
𠀧
㶞
㏑
䝞
⿰
❮
䂬
㘭
ﾄ
ⓢ
𫐕
✗
▐
╫
⌊
𪱥
ꎬ
⦿
ﾍ
ཏ
฿
𫜬
㽏
𠋆
𫈵
𢙏
➝
㱩
𩙪
㸃
╴
ⓥ
℗
𢄂
㑇
⚾
𪡋
☁
ˆ
𫛪
䴥
㨃
╖
𥐻
𠙶
㙡
⾔
𪡞
𦈐
▨
⊳
❣
ˍ
𫛤
𫍚
𧮪
❼
✱
ⓣ
𫎆
𥬞
𠐤
䠷
𩭹
☮
𠊎
➩
⊢
㦃
⿱
✮
‱
𡥧
❃
㬢
⽰
ꢀ
𫍻
❽
㷫
❒
❇
𫛣
➂
𫅗
𠒇
ⓤ
㘵
𫚐
⼝
✡
𫚖
𪾦
☓
☄
𨸏
᠃
𫜰
𫈟
𪾸
𢙓
⻓
♔
𫐈
㻅
ཡ
𫌀
𪭾
𢫬
㮣
㮈
⺠
𫘞
⾰
⇋
↵
𫄫
𣚚
㊗
ཨ
𥙿
𡨥
☚
⼥
☕
𪩸
㕵
⽩
𫈉
𦈎
𡊁
ﾆ
䕶
⻑
𫄳
⾜
㐌
❭
❬
✹
˘
▦
𫁡
㚟
⓪
𫓽
𪨷
✄
ｨ
㉑
✯
⚑
𪵑
䜌
㰘
𫑡
𣒌
䆁
㩒
⾛
𝑂
䅁
㆟
ᠡ
𫓯
㚢
⼏
❦
❝
☏
︖
䃼
➺
➨
𫘪
𤊨
ꁕ
〦
⚽
⇆
〨
⽯
␣
𪺷
ㄫ
⽓
𫔇
𫄶
︐
㙾
㇐
➌
▩
ᴗ
𣋉
㍿
♋
ⓧ
𫘬
ﾐ
䱽
䁖
㨰
❑
𫍣
䵍
䛐
㉒
⺌
☷
ⓩ
𫋇
⾺
⟲
𫖇
𧒽
㫻
⼉
⬛
⁎
𫐎
𨮁
㘛
㉔
⼜
☃
▀
䗛
㕭
⻘
ҵ
ﾘ
ɳ
㴓
㉓
⾒
⽼
✟
♩
▹
ⓨ
ℙ
༼
𫍰
㩦
⽶
⻆
พ
𠱸
䑕
㳠
⾓
𫍪
䖵
⿊
◙
↳
𡤕
⽛
♻
♞
𫓪
𦝼
ㅍ
⾨
𪪼
𥫣
㵎
㡳
㝹
⽌
➃
ᐛ
ɗ
䡾
㸅
۞
𪷽
𠃊
䨇
䦆
㦕
㊝
☲
𤅷
𡰪
䰟
㊤
☹
◠
ᠢ
𣷷
䍀
ㅋ
〧
⽗
☢
𨅬
㒳
➷
ʥ
䊨
㕛
♉
𫚌
𪽪
𪧘
𤶊
𣺼
𣎑
䇿
㆓
❊
𪸕
䞐
䔄
㐳
⼰
༎
ʈ
ǀ
𪮖
ꅀ
㥠
⾎
⠀
♈
☾
ɜ
𫚧
𨋢
㿠
㕶
㐅
⽪
⁉
ɽ
𫗩
𪮶
㲪
⺮
☱
‽
˃
𨱈
𦨭
㶽
㲩
✺
☵
𩨄
𤈷
𠺘
𠵱
䗉
䇂
㼎
㻗
㬌
㝢
᠈
𫘣
𫘛
ﻩ
㆞
ㅎ
〰
⺁
➪
☭
↬
ɚ
𠂹
䢅
䡼
䓤
㗊
♟
☩
⌥
𫐆
𨱃
𡈼
㼅
㟥
㉕
ㄭ
⚪
༽
˝
𪧀
𤇹
䘵
㐃
˴
𫗠
𣎵
㙉
ㅗ
ㅏ
〩
❐
☴
℠
ɖ
𫗥
𫋻
𪹚
﷼
䕒
₲
𫗮
𫔯
𫍜
𫄰
𨥙
𤞃
ꁇ
⼟
✴
♊
☸
⁍
𫓱
ꎮ
䵋
㶟
㴶
㬪
㞎
⾁
⼲
ℵ
𫍥
𫄴
𪥰
𡎚
𠮷
✫
⚜
𫍬
𫌭
𪞝
𡿨
︑
㨗
㚖
㐆
ㅊ
⼑
❾
✂
♎
♌
☳
⊇
⇦
⁽
ཞ
𫓦
𡳞
ﾚ
⾷
♒
ཉ
༺
ŧ
𫚞
𥄫
𣏌
𣈱
䡽
㧰
⾞
➍
▯
‸
۩
ѵ
ʅ
ɵ
𩙫
䡶
✲
✬
⎦
ʹ
𫖔
𪉑
䡻
䗪
㖭
㓜
⎡
ถ
𫑘
𥑮
𤊟
䚟
䄄
㷩
㶶
㘰
ㅌ
⻊
☍
◻
⎪
𦦙
𣳫
䳘
㦤
㕑
㆔
❨
≖
ཧ
ɥ
th
wh
##idu
##dow
dn
wor
##igh
sy
##ifi
sin
ser
bu
uf
tr
##oss
str
jav
##rom
ke
fbq
ufb
##qu
##stem
gr
cont
gh
sw
##very
fr
##iz
exc
##for
gu
ye
blo
opp
##gr
dh
##ind
##pg
nv
serv
ty
aw
vo
##iv
len
##idao
intern
##iss
zhidao
wo
##oso
mus
stud
hel
col
##ams
##wor
fo
supp
print
inde
##otos
comp
aut
##ank
par
##ife
mat
sch
dis
##unt
wr
wa
loc
micr
##iao
sn
fil
num
##irl
def
##roid
##ovo
nvid
##osoft
mdash
ghz
eng
char
bet
val
itun
##ents
sel
fd
##ild
sub
##arch
##itt
kt
ret
pub
lm
spe
comm
progr
wat
##ars
hy
acc
##ota
##ody
##ower
mov
ik
bai
peop
rel
ku
##old
bf
oline
1.
happ
ax
quest
##ript
dri
tie
wl
wm
contro
question
vis
tra
##vers
void
cur
tieba
incl
fir
tx
ste
bre
inst
det
fs
##tml
che
##eth
inter
jd
nor
tem
oth
son
qb
##ouch
cor
cct
conf
stat
vx
##zd
xm
##ange
ln
iknow
goog
##oll
bel
src
##ror
jn
tn
aft
lr
pic
med
##ord
reco
sol
##ib
hcg
dy
cre
dou
cw
mj
fin
hb
ry
expl
ple
cy
baike
##iff
produ
vide
om
##uld
ey
gen
qz
pol
fam
sec
##++
kn
ele
mob
mys
ang
exp
vers
nj
conn
py
fat
ut
cq
dat
##ont
sams
##cript
zx
##ouse
att
tk
ao
mem
ado
ju
rec
recovery
zz
##ref
youku
##amp
hh
vp
##wl
dev
##enc
temp
##ely
gf
##ated
beca
##udou
som
ext
ub
##ession
mid
bm
tao
detail
##quo
##ption
##oth
ls
sing
rem
ask
dw
je
##vb
cent
pri
tudou
gam
##anc
cle
bea
artic
nok
uni
jf
##.0
kj
##hh
##cess
##oney
##cial
ri
thr
##ete
od
sj
##orer
sur
sv
uu
docum
litt
px
##prs
##ount
ot
arr
chin
import
##mal
aud
teach
##ips
##eld
abcd
nn
vv
cmd
xia
ath
nan
sum
sou
prof
##ient
gra
hkey
beaut
##elf
manag
##ero
adv
jy
sty
ref
##jj
kv
vic
ow
diff
cal
hg
fore
sq
gta
bj
##br
eas
normal
wq
xt
input
oc
wen
dhr
config
woi
mach
jk
##ault
ass
##bao
met
wid
rad
flo
tool
lear
lang
hiph
##raw
tit
kz
ud
sor
##any
gv
##ieve
sett
disp
default
ind
thank
dk
wt
##olog
rep
hao
##ational
##edit
programs
priv
person
##fore
rade
vt
ear
dir
yo
##ason
bx
ja
wx
ywl
##rator
##ource
gx
mak
##zh
requ
tl
zu
mag
ou
newmap
ki
athlon
scan
upd
##iew
bec
eth
mor
imei
##ascript
std
ter
taobao
##iful
dim
univers
load
nat
inv
sho
shu
addr
prot
hiphotos
tri
nd
administ
grou
zi
noth
yb
cap
ton
##uct
kx
1.5
mah
swe
bn
zg
static
eg
width
tid
dddd
mz
lx
bir
zs
kf
##rist
jg
##iness
gal
##orn
sys
height
##571
pat
dem
##ump
xc
##ility
##ān
applic
hj
za
fg
cop
flg
um
dg
##ows
aj
fal
vicp
ich
setup
hl
pf
##ating
##àn
mh
lk
sth
yj
dz
bq
fact
ora
mess
cz
administrator
##cho
sinx
fh
eu
sz
##ages
sal
colle
##ior
har
ym
command
nao
##velop
ur
imp
csol
someth
comput
qzone
cra
ix
sx
mother
hm
xing
oper
##ought
zd
hol
9.0
qw
tar
##yl
develop
aoc
student
##ific
yx
resp
settings
ten
eff
##án
##itch
zw
##ength
##ract
ans
zy
##thon
##ote
xf
tre
mom
##ember
summ
activ
gener
ntfs
##ernet
pzd
nic
##ili
fp
rest
##omi
yah
frame
##ution
xs
gw
hx
##ined
tiao
bcd
bro
nf
heal
pte
ban
techn
zq
lf
pent
differ
pw
controll
##ices
vd
##ures
gy
sheet
qv
const
begin
tak
vn
sil
lib
exce
zp
array
ult
cons
jh
pres
lad
ez
##.5
njy
disk
equ
ethernet
hw
kh
listen
xin
##ask
regs
controller
vl
christ
pap
rr
cel
##loy
mer
alb
inform
hum
mil
bei
swf
dist
jian
teacher
ying
##kt
regsvr
##onf
toget
ant
sle
hal
ks
cid
wz
jc
fw
aq
feat
gz
##ove
##ester
xun
qg
less
uns
##ital
##imei
##ipse
##onfig
luck
yd
cosx
wond
dep
gk
prop
##look
lay
jt
fre
autoc
vf
ew
##clipse
kp
regedit
lb
amer
zj
lj
icl
wom
ent
##ister
fif
xxxxx
##450
mult
meet
langu
mot
wcd
init
bk
mir
##ache
acd
jw
nod
jm
gba
zhi
wy
cosa
struct
ys
xk
##imi
shar
prov
wonder
soso
yq
cgwang
meth
pq
rl
went
##gou
##iron
scanf
ini
##ates
dig
gong
##rib
mw
msconfig
dq
row
speak
hq
kr
option
graph
fff
proble
##0000
gig
disc
xiaomi
interest
kill
driver
wenku
tools
elect
bra
ill
##ense
pict
##ities
stor
yours
xv
often
lat
eat
eh
rtl
anim
##460
wc
cmp
bv
##item
ny
connection
cha
mur
##ln
gts
bw
cour
##dmax
bed
ffff
length
jx
##lei
nw
qing
gj
father
kan
lq
compl
yz
##ict
bey
tian
fei
wg
foll
reset
adj
yt
fut
hn
float
profession
cout
month
writ
nz
ze
##ited
shad
pur
##ative
password
chu
##tern
prom
##pping
wf
wlk
heav
sleep
jia
bac
remember
mal
xn
jl
tot
sus
documents
exception
clean
gou
##isk
yester
lon
commun
alc
lar
##ipe
mei
##apter
##uss
##anced
yesterday
hour
##az
wn
##rop
##235
param
qy
cast
ooo
env
##esh
az
fate
##ender
acb
##stand
opt
kc
jam
wj
flv
conver
##orrow
goodby
stre
foot
##ually
fj
kid
yun
mbps
goodbye
zo
dav
##hhhh
sis
##bang
uuu
##eger
##ues
tur
enc
dar
orig
xj
vcm
rb
zf
nobody
dre
zt
xunlei
fav
login
cust
roll
cold
exec
shang
wb
bur
println
vg
##zx
draw
galax
qk
##ety
zb
lie
cgi
gigab
gho
##ghz
dao
nam
jingyan
##idge
nr
uh
sad
anal
cab
bgm
integer
element
flow
ay
bil
smile
thir
yg
exit
##ween
fz
dest
mill
account
##ural
protect
mdf
##untu
##ced
mel
leg
##icron
mq
iw
asd
abd
flag
zc
omicron
prin
solid
dur
format
sit
hur
emp
upload
##iday
servlet
hist
sss
mtu
insert
tor
glk
custom
winxp
additem
drivers
wsi
lik
stdio
others
cir
giv
1.8
nforce
qd
og
grow
##ào
atx
mad
origin
task
syn
den
enable
stu
xq
bal
topic
sand
bon
graphics
cin
##umn
glo
roc
birth
catch
verycd
auth
##order
ox
cost
##áng
near
foxmail
nav
burn
##jjjj
americ
train
jz
dang
xe
pret
yn
dam
bz
parents
wdc
xb
jap
bdd
##ization
duo
premi
sdf
rob
yue
ali
pas
arc
##string
sto
##raft
fy
tomorrow
succ
rg
rv
##hael
mti
nacl
reason
rpm
awg
2.0
rand
beh
snow
##poe
arch
total
thanks
wipe
pie
arg
contin
cert
came
lead
##emon
qm
everyone
safe
exper
rtu
##gggg
cult
finish
cond
qj
##rome
gar
##ival
wlo
##bal
delay
##āng
autor
midd
mcp
jnd
charact
##550
nl
##tek
lw
icq
doct
hon
success
##itten
ttt
zag
perf
seed
##rar
gro
##ample
mjg
ring
qual
xh
secr
zxj
shin
libr
few
yw
saw
pppoe
ost
szd
sort
ymc
obj
##china
##onom
yh
##aga
##onse
drag
bbo
maw
autorun
insp
answer
adb
visit
byte
nzd
hv
lonely
lrm
zm
soon
lrc
##aver
hor
none
##etch
query
##ify
somet
##vent
woman
debu
coreld
##erial
kjb
oe
serial
##ellow
response
jfq
hen
tro
sid
ubz
outp
puu
sav
##lue
huo
jour
##mas
iota
pain
gigabit
##880
qzf
##une
seem
mdg
trou
cann
users
problem
##imes
muren
##oro
label
##eless
secur
gougou
utf
pian
kkkk
qx
aff
wel
##ized
yao
##ising
yyy
##bn
bao
environ
shine
goes
kyo
cang
##eron
nzdf
bqs
output
2.
six
defin
zta
##ktop
saf
bobo
pot
shut
symb
##craft
told
tenc
##āo
yc
door
define
exam
front
vh
##utes
realtek
jv
past
tencent
fest
desktop
ros
xue
##ashi
cmb
hell
##ency
sha
##char
##alog
##abb
jdk
sent
vvv
perform
range
gank
econom
voc
##iny
rece
poss
xo
environment
nero
##ident
dreams
uid
pj
##én
otg
ncr
cdr
zhong
bbbb
##unk
fur
zr
spec
virt
shou
took
1.4
xuan
chk
maybe
##str
grad
mzq
vk
kkkkk
kfc
lou
written
tfbo
lum
##ules
wpa
##ends
##weaver
gonglue
hdd
hub
aoe
##àng
fk
background
##000000
xdm
cnt
##par
extra
dad
##tain
classes
kar
ger
##īn
##ateg
sometimes
##oloy
hyp
##iled
pty
zk
incoloy
brother
swim
##ext
##fg
spl
plu
clock
birthday
cand
character
##els
educ
iiii
##icult
sinb
mas
kon
ess
lcm
fq
typ
repl
cmn
tfboys
pract
hang
##uts
nnn
everybody
##peg
ptf
##cci
fair
rdd
##íng
letter
join
ek
undef
propert
guan
##eter
sister
qp
difficult
yqk
2.5
qkm
pretty
vir
isn
hom
pix
jcm
wmu
meimei
ssid
moment
yzz
fdd
##ēng
material
vbg
dmu
repa
mcv
jnz
aqu
##ename
gun
half
present
prim
jjc
rese
ssss
##where
zax
hyzx
mouse
blood
lian
pick
ov
reach
phil
cannot
bjm
undefined
mpg
tsu
gate
border
disable
##atch
kvc
cloth
mxq
hid
##asure
corp
##prise
sund
bilib
ahj
anything
chann
ixus
##ones
gard
definition
##ole
intro
##ease
ybm
kq
indust
imag
position
having
##ants
jgn
comes
chr
jiao
ship
ql
qian
repair
rpz
wv
iee
activity
##iong
ia
amo
status
bilibili
tat
##iso
qui
oic
##ination
##stream
##query
cqtc
loop
boom
deb
eee
working
pow
ntfe
##elly
carry
asf
##ài
##unter
ppc
tomcat
caco
vbs
dot
til
##ention
ham
fail
context
lam
psv
yellow
siem
eight
ell
##ental
##imo
fid
floor
##ōng
eid
trouble
rk
drink
##ril
filter
##wap
ipv
peng
hast
dword
fuck
##ences
column
nar
lun
jie
ppr
squ
fac
celeron
fix
communic
vw
homework
##roll
conc
might
##sport
shall
favor
mou
chance
weather
##uit
poly
polic
fv
xiang
datab
gotta
stack
##loc
gq
hua
winter
wild
impro
mst
ifeng
hui
ade
lga
package
nex
partition
##ato
jess
though
breath
tears
heaven
hhh
able
emui
basket
arri
categ
mtk
doctor
processor
wk
##ledge
pes
amaz
##430
siemens
dual
mmc
gddr
flyme
doll
middle
inte
sens
##áo
##boot
fra
xie
chips
##ido
happen
fen
los
##pped
lic
interface
clos
usually
dpi
playlist
##ried
brit
dhc
likes
trad
filename
seme
rub
##īng
hbs
##ppo
##ither
##idas
##uth
##igned
nah
uw
##ulation
vac
semeimei
tal
##gu
large
bù
##iter
##elloy
hastelloy
kbps
tong
sen
##ban
ener
personal
##uration
##420
disco
bright
sab
clann
incon
appe
called
require
sfc
exist
##erc
##nam
wash
cus
teng
##ether
##ools
organ
##uf
tran
qqqq
##ater
however
smo
cvt
ara
bom
shan
kies
endl
dfg
record
phen
##uation
svch
vu
clannad
##dit
oz
firef
ash
emm
subject
wir
module
aid
maj
##ami
fold
beats
stream
fel
##qb
args
aob
ux
usr
##óng
wanted
jiu
unk
allow
minutes
paint
##owser
svchost
##oun
las
tay
knowledge
vy
illust
crv
launch
yong
rav
eo
qn
bor
forward
bes
iss
ding
util
cla
jet
cart
spend
##owan
##zhou
ij
configuration
yor
mfc
winpe
##ysis
belong
incre
eve
integr
refer
##sole
mms
ggg
tq
premiere
hrc
football
##ishi
scd
thous
panel
cet
buffer
inconel
mart
ppm
youxi
early
tall
thousand
jen
interesting
example
xls
##ines
wol
broken
vae
ting
danc
shir
##music
ach
tou
lovel
third
ble
cmwap
slow
ded
cydia
ppl
grid
mass
beg
mist
sdram
tz
trust
cmbchina
hund
sheng
##oshi
duowan
drop
occ
ih
nai
instr
chipset
##vey
alert
qqmusic
mum
console
mmol
born
deli
missing
finally
ava
tank
asked
ran
##ides
unic
laugh
vod
mmhg
scr
tig
##enty
unsigned
attrib
willi
chat
kat
rlm
nine
assist
##ises
##ected
foreign
quwo
combo
fmt
puk
original
dian
ber
kpa
leav
##ives
desc
##ready
dress
hai
vj
whether
sever
skill
rz
tbt
##raid
fant
basketball
3.
##105
spir
kitt
motor
later
2.4
spr
fer
vict
oooo
##edia
imm
quai
failed
##oration
contain
##ised
debug
cosp
afraid
##iction
ride
euro
timer
sta
rise
fig
tiant
stars
##nal
##ught
yp
avast
tick
condition
dal
evo
wood
acr
mmmm
hide
mbr
qf
cdkey
hyd
already
##ronic
##ared
pod
##pha
gang
resource
xian
vvvv
zml
troj
mmm
hours
ape
deal
zhen
##dsk
goto
zang
fort
##change
##lookup
##bers
bod
proe
cmcc
##ources
acf
sell
##ently
##ench
lives
miu
jud
guang
das
accept
##itter
options
piano
offcn
cosb
##sper
everyday
##éng
vin
wnd
yì
fill
ident
means
comic
decl
tiantian
loving
##aces
eeee
fab
##ied
topics
trade
hyper
taste
##ēn
patch
abe
avg
##ruction
##irect
behind
lala
dont
somebody
uy
happiness
err
inspiron
boc
sai
wake
gma
adapter
mai
warm
gan
hat
vit
attach
ctf
ej
mstt
convert
exerc
ifi
clothes
circ
icc
##ided
above
stra
##etime
ones
gets
##xin
soci
##olution
burning
transl
##ixin
plat
till
busy
pplive
dai
hib
qh
wal
cccc
tana
twins
theme
walking
deg
##ots
kno
partic
hou
nq
##ocol
ground
##kx
autom
##istry
cine
suff
sssss
##nown
writing
kfr
grade
##ele
##jian
xg
##qing
knew
wife
depart
sse
vill
danger
##imate
aust
layout
sunshine
oicq
oly
toy
mno
##df
nin
installer
##uda
replace
##itional
reb
introdu
##ords
apply
unknown
##cii
capt
qqqqq
takes
0.
##uz
sinc
ala
viv
rising
##ension
mao
gave
wonderful
##elle
##mt
bri
##osh
weight
fool
##aq
yī
minecraft
por
gggggg
uuuu
aftern
blank
blu
hurt
cdk
nono
remix
pdd
problems
wants
truth
rou
includ
heard
telep
yf
asso
mich
stick
oq
prefer
##odes
afternoon
##pression
evening
knows
register
jì
##usion
sig
bott
million
alive
kuai
activex
associ
scroll
xw
tired
teachers
major
##ott
olymp
chkdsk
desk
jio
sli
ven
##ended
##vern
toc
##eta
lnx
lav
neg
##510
gift
meeting
##itude
repe
tes
##220
bud
sizeof
improve
initial
desire
cuso
apu
loved
##yin
quad
pom
vlookup
pcie
watching
alth
trojan
zuo
rank
sang
##pty
uq
mcc
coll
geor
accord
consider
famous
templ
cot
hundred
##5200
twenty
hco
##elves
##hhhhhhhh
dvr
volume
pho
qwq
rrrr
lll
pok
cfg
although
talking
##izu
vid
##otion
diam
##ony
converter
thom
given
browser
tun
acad
rng
forg
hxd
pz
bie
pcon
property
pig
strength
flu
flower
##dx
zzzz
offset
cer
ish
##210
lpl
##rac
##aya
##bei
abo
zippo
shake
dab
compon
sqrt
rule
khz
fecl
hate
milk
kara
##ori
enabled
kil
random
clo
pmp
##gd
following
lil
dbc
values
##iting
careful
writer
uj
kok
##ema
##yuan
mye
rush
wil
shutdown
singing
psd
flowers
fhd
rather
##stal
alm
lijia
govern
lond
yr
zwj
gpedit
cuo
boos
yyyy
outside
##enger
hosts
equip
weixin
huaw
jimi
bike
hno
##achi
##atu
reboot
cpp
bak
##350
hex
##archar
aakx
acro
kick
trees
yingshi
rema
healthy
kang
apart
employ
tostring
juu
ole
taking
margin
wtp
##hui
pconline
skycn
aaaaa
felt
##ential
csgo
hifi
falling
lei
roy
minute
mobility
hung
##ech
ssr
##osed
oce
asc
tttt
groove
compet
ther
rund
##pal
##itive
sexy
worth
oj
gso
seems
##zhi
kore
##iling
yk
sda
##reme
wide
bow
##eto
plugin
##orus
farm
stri
##itting
##elds
invest
bbb
##phi
dfu
tap
gggggggggg
apn
umd
oy
##umb
uo
dsg
cit
dtd
hash
itv
consum
drama
##fort
textbox
zv
adt
##hao
bind
pattern
##320
##emy
rid
emb
itools
breaking
oi
downloads
unlock
offic
monitor
##astic
lovely
animals
spirit
##ission
remove
##rii
struts
phenom
ctfmon
guess
##ellite
isa
broad
onl
ful
dire
psy
##ffic
##ibility
hook
vz
iz
bull
##7000
ddrii
telephone
attention
tsi
yum
kern
quiet
##action
zhe
certain
fash
shoes
storage
##istics
##ograph
meng
promise
viol
ooh
vq
sna
remote
yout
acrobat
dub
nahco
egg
lind
dinner
byval
sales
aver
##efl
temper
##oop
##èi
practice
started
aed
lover
chick
poor
kir
##acy
##click
modules
##riend
##used
##friend
##310
dol
cro
swimming
instrum
##345
inner
bottom
lgd
appro
huatu
electric
##bie
##agr
keyword
##illa
jdbc
quite
directory
dialog
fro
##ilt
gas
optim
##ternal
##yang
shel
sharp
##ector
folder
crow
cmnet
coff
align
coo
shot
##770
rayfile
fields
hidden
chain
jkl
localhost
fear
loves
pray
kis
sugg
##omm
xmt
xps
##player
mrp
changed
peace
##atever
whatever
hosp
dma
arms
aabb
jord
sold
##ensive
cbg
heavy
qqlive
##èng
entertain
looks
##inem
suggest
pul
parent
ico
boardid
zhan
dba
songs
hay
treat
gbk
bae
haha
guy
##istic
needs
tgb
clim
##ief
wer
term
##fast
dun
destiny
chn
infin
peri
dae
jew
youi
woo
qingren
##òu
termin
butter
sud
itouch
primary
ways
tow
##inedown
onlinedown
##zhu
fes
anyone
coms
wireless
é
lai
##oma
longer
pai
rout
##ille
scar
nik
##chan
limit
parad
mes
empty
##asa
##inst
##rew
intell
##anch
xxoo
upon
whose
##odb
akb
##orary
listening
iask
instit
0.5
gkd
pause
role
trace
geo
ord
customer
dia
amount
adm
##jk
pac
hbe
asl
dor
dancing
tct
cbb
hibern
##jjjjjjjj
##ived
##ici
##ái
respons
quan
eset
lines
loader
cof
##wr
cou
diskg
across
attack
rat
fell
dsf
nga
pers
ign
countries
choice
export
scale
ahci
##ately
dynam
tsh
diskgen
##aly
luc
calc
qiu
disabled
industry
mirror
rundll
varchar
descript
##aha
##asy
fba
ori
ability
illustrator
haw
hei
ocx
classroom
##api
##yue
##odesk
storm
zpz
tok
sick
dsa
000000
ome
redirect
runt
sara
loud
bought
##tec
##óu
lunch
winnt
hibernate
##zai
execute
weekend
sant
wolf
coverage
flex
##ased
tut
higher
myeclipse
header
yv
almost
lights
colour
provin
stm
according
shì
kao
pictures
meaning
##ago
seg
##ailable
##aper
daemon
cde
europe
muse
period
monel
ein
tgbus
transport
distance
##alo
gent
##xiong
##lib
avril
edg
champ
##ability
shoot
##dri
##apad
prep
ons
medium
protection
mond
##aku
buf
bee
whe
cmu
lion
submit
trim
finan
tiff
setting
dro
hospital
##igo
dtc
thin
honor
cele
openg
xīn
tax
yù
gee
kva
bol
dede
teen
cls
ideapad
throw
serious
##gbox
ota
kernel
layer
##ffle
runtime
fgh
teaching
##530
taken
timeout
angle
virus
quart
##gw
psk
##eters
detect
shape
##pron
pref
pages
crni
rog
sempron
datas
spy
##itar
defy
sak
due
##odo
swing
msgbox
progress
nich
shock
ker
aux
pengyou
counter
handle
lux
dut
fsb
##uri
wkt
worry
##ersh
ner
german
poll
bio
aeb
exercise
##ards
smc
police
scient
operation
bsd
lew
comb
xmj
##crmo
##gaz
government
##izz
bul
chorus
complet
##ype
integrated
##asing
##ists
##ín
several
chm
##cious
##uary
benef
##òng
hwnd
repeat
fruit
zhī
rot
distrib
feet
resources
publish
transfer
nut
stock
tam
mars
rtx
gem
chao
##inx
lnk
community
##omo
portal
tilde
##cu
##éi
pair
##enda
zoo
ultraiso
uef
surv
license
rect
aqua
hhhh
countif
nit
bass
fad
apc
##5300
sym
ron
either
##mgr
gamer
##edi
ema
eminem
ics
zzz
quickly
department
##ipai
sei
blind
xmz
cooh
celebr
saber
##apt
steel
ment
bound
##ances
raise
##410
rice
catalog
corel
daw
invite
ale
blow
discuss
fle
prepar
fee
##rict
grub
austral
wiz
locations
wú
heat
##aba
least
ocr
relation
mouth
iex
shsh
##ancy
pool
auction
nes
kou
selected
hoho
asa
##ables
respect
##ceed
zai
changes
instance
hebe
pets
cute
jos
traffic
gain
##pet
kun
glad
##sty
instead
suit
msm
pour
##ically
hiphop
plane
##eful
ist
tanx
boole
mariah
began
##810
##shan
zzy
secure
huan
commer
cub
animal
netsh
eval
hyt
##ige
##lement
flying
kingston
##uring
tex
advant
vari
whom
boolean
average
jgj
analy
collect
shuffle
iost
##idence
shared
cacl
rainbow
msdn
bdc
##aki
##vert
native
rip
relax
invo
wet
bos
direction
magaz
ogg
cars
iostream
solution
##xa
carey
dimm
fund
bce
yú
knock
##lect
situation
complex
##att
jon
##èn
bba
valent
bde
alloy
loli
quant
satur
bam
princ
tried
lì
successful
##ifer
calif
internal
tgp
##oku
shinee
finished
classm
moonlight
dry
##inger
ptr
xvid
ooooo
description
temporary
##ēi
##sg
##ado
himself
bool
ecc
##arm
favour
##akes
##shou
##oria
##pk
gradu
iexpl
freed
region
ion
dwg
xfs
arct
cass
eating
memories
bga
faith
among
sudden
flac
vector
province
fonts
biz
jas
invent
finance
sudo
breakfast
uz
crmo
lots
##908
recent
guitar
##uto
iel
atl
cuz
hellip
qin
nak
boa
abcde
training
hbsag
cda
ais
soo
kkk
aod
sight
##umi
chuan
civ
uefi
##avi
sender
silence
encod
saying
standing
##ener
##tex
chun
provider
transform
wep
zui
##fang
emu
centos
chair
##anet
ami
##fire
yog
adf
fromuid
westlife
sogou
##inter
achieve
piao
xiazai
held
multip
climb
parse
torrent
medic
##610
bab
##aged
necess
lucy
entry
##oyo
californ
deter
proced
apm
##fd
yingxiong
statement
##ulator
todo
append
##xue
dangerous
omg
kaw
##6600
amazing
motion
saturday
kinds
valid
feels
risk
eof
usp
akg
caps
played
kur
template
pud
diamond
warning
happened
alright
split
stl
##ological
activities
##230
bef
ada
##ops
##ūn
fem
jjj
beginning
therefore
sixt
##103
lif
bid
lsp
mvc
looked
bois
robot
##kes
##others
hunter
reborn
bieber
ishare
french
expect
pull
##sock
charge
kcl
typed
ending
##col
##eria
##ying
##ufact
inno
##xing
##yun
guard
iqoo
mechan
##ending
pinyin
pressure
##vell
kof
##gest
hearts
japanese
aba
nst
afp
kal
keys
paradise
branch
cooper
##ander
movies
aero
spm
malloc
agree
cherry
##afe
rows
mrs
emule
ultimate
provide
manufact
symbol
##mmmm
divx
lal
vel
vray
lyn
tune
sample
speaking
learned
protocol
lies
ipa
ielts
veget
commit
##ifier
compos
appear
zxc
calling
rules
funny
##inder
frequ
mask
sae
compat
sma
cru
tous
pip
deng
xiu
diction
sugar
meizu
seji
jeep
failure
pav
plot
ime
checked
hun
sept
mdi
chong
gin
##inal
places
lit
stellite
results
hbc
hdtv
wmp
interested
circle
espe
mut
dump
llll
javax
bca
items
construction
useful
onclick
hack
##itical
cdb
rén
comfort
iexplore
figure
yamaha
smok
expression
hil
mang
maxim
bou
except
yas
abst
repub
jbl
horse
nvme
sdo
monster
equipment
1.6
iron
##essage
alter
devil
##ady
straight
hydro
eac
pao
backup
eta
tip
monkey
miles
especial
##386
century
legend
opin
becom
ucar
scanner
phoen
##gis
magn
bun
component
freedom
##spers
olympic
haven
hans
ccb
bcp
proc
various
director
##iable
aajs
supply
svn
##vation
diskgenius
matrix
launcher
ansys
darling
questions
properties
lianxi
tte
activation
##xie
dsc
##emat
##301
##acc
suc
ith
csdn
magnet
##201
jag
##dl
satis
tail
clk
##vious
##inary
concern
fas
##idian
further
ours
kin
awp
correct
preview
stan
traditional
chs
ave
uncle
edc
spent
jad
##ldr
tianya
dei
staff
cash
influ
delic
blues
shader
built
gcc
alo
sgh
autumn
para
jer
ens
##hon
ning
boh
abstract
sounds
voa
##racuda
barracuda
zix
flight
vacation
typedef
temperature
estab
ana
skd
startup
##ppa
singer
benq
boat
regr
tsy
opport
fol
caught
shim
prob
fanuc
scene
compaq
dare
##209
zzzzz
republic
weak
ate
neither
measure
cow
effort
telnet
opportun
especially
rang
yok
receive
##road
rhy
ticket
igame
mss
##aling
tbc
cheat
##icy
unc
fighting
marry
fob
gentle
chip
race
plays
beast
##ores
everywhere
##ires
curs
merry
shipin
princip
russ
##ges
dum
##info
establish
belie
sketch
cif
crack
qwe
##202
rex
koh
phoenix
biu
##303
##anti
orc
##620
qqpet
##quence
cvw
visible
degree
douban
##mf
##hood
vag
impl
proxy
kdj
gia
##uli
cmy
hhhhhhhhhh
##teen
peer
dce
qiang
linda
brad
cher
nur
sed
favourite
##omp
##bur
generation
everest
parameter
bì
##pres
vob
xī
##hic
##ively
##yte
percent
ctm
cbl
waste
operating
##330
explain
##kyo
aes
enh
leaf
reser
logic
penc
angry
audition
seek
awt
##agrid
##ōu
expert
nig
btn
##etic
mcn
coat
tmall
fax
bread
tpe
hus
speech
recy
brow
##mani
bcb
##ahl
execut
obs
##ushi
dcb
pra
meg
became
##aur
builder
proud
##igne
##ably
holding
nad
leaves
equal
shining
restart
keyboard
vert
friendly
parameters
viewer
wcg
shí
wis
safety
lived
eav
wings
ttttt
dust
selection
hunt
mdb
token
bkb
##iles
ige
youth
mydri
##esis
##tery
aec
rac
moving
##utton
gab
dying
gogo
##reader
koto
excell
ixp
impa
##ception
gram
extreme
pron
tpu
##cmp
##gbt
purp
hem
spot
nom
cmf
gray
datagrid
rolling
iframe
nag
gateway
grc
listener
received
mydrivers
##esty
fran
macrom
depend
prior
pwd
required
grass
giving
##818
notebook
yui
gol
##820
spd
thirty
webs
##enge
dictionary
coloros
subst
demand
lao
maint
liao
dynamic
chart
agre
lid
designer
fenbei
gall
##bl
linkin
certific
ware
nun
realize
contract
##irm
##ulu
turned
##iler
mong
anci
kav
hé
shellex
epc
procedure
cosc
une
leon
##rupt
##elo
##pend
rio
kobe
mono
dea
fron
ima
factor
hers
tru
##dmark
meat
vok
##rics
concert
odbc
mop
forgot
liv
leaving
##orate
ise
continu
dsl
ends
uri
mmx
##onex
shui
rui
liter
dcd
zhuan
prote
##iley
loss
##ppin
dbf
##aker
##logon
pocket
dfs
platform
taxi
weap
lift
##agon
winsock
behav
brought
restaur
biao
kle
gtr
absol
##vt
##awa
chall
bmi
pei
##ughter
zam
##ases
##eph
##850
amv
pixiv
mig
swap
pcs
carbon
volte
grant
birds
spin
nfs
twain
leep
ipc
qo
pil
##alth
zhì
declare
uzi
zha
dogs
signal
solve
fds
proper
articl
australia
uchar
resist
suddenly
amr
kug
##args
caption
##awn
dde
egf
brothers
bless
coup
##onds
toshi
princess
brain
uint
##write
mand
goal
laser
klz
lavigne
hkc
handler
jol
dirty
rapid
##āi
registry
##opt
cps
reference
##rol
shout
stronger
fairy
##alid
psw
operator
ebc
phot
%%
hardware
repres
rihan
groups
anymore
prevent
gct
members
pear
##itsu
pmc
cable
difference
##560
xqb
vitas
escape
sevent
debuff
intellig
processing
imagine
crc
cdc
##ulate
separ
ugg
pascal
civil
##spersky
kaspersky
##voc
competition
crying
accounting
kee
washing
consumer
arctan
pit
dmi
necessary
pnp
dhs
##308
rst
##302
##ection
duote
policies
tight
##108
bpm
passport
decided
journey
issue
simatic
##kao
baso
ari
##ivir
surr
impact
snap
independ
sitting
tik
medicine
##630
##bd
arrive
kmno
quit
zdic
rol
specific
pch
indiv
parts
aren
thems
##ured
psn
pla
##iance
pfc
kugoo
fink
##zhen
newsp
##iller
awm
container
epis
president
func
sie
nation
##ono
technical
sese
##aster
##nimo
chéng
classmates
dra
##install
##sb
spi
silent
rpc
rail
dawn
flat
fēng
##ects
tale
ovi
nei
tennis
sched
scen
rabb
##words
sqlite
themselves
winlogon
##tpage
##icated
jewel
recover
1.3
pun
1.2
wit
##ays
pump
tiny
##open
sof
donna
nub
perm
qí
died
compare
growth
rum
cant
vfp
killer
invalid
##ichi
hklm
dé
amb
##haps
spell
individu
seat
##780
jī
mathemat
noise
seq
rihanna
##onic
caf
recordset
protel
hrb
spread
antivir
passed
iy
moz
gel
somewhere
##ùn
forms
##aru
emer
skills
dmc
era
ahead
cdfi
##band
##iver
frontpage
csv
edf
giant
valve
endless
innoc
eventargs
getchar
regard
##user
ancient
cultural
wds
##ante
bbd
ucweb
infinite
fag
##icient
rsv
wasn
pods
pppp
thick
pag
kra
connor
notice
behavior
tata
intent
sheets
cham
tin
brave
hud
dà
##kai
bohler
assab
##207
##eb
dil
stories
saar
extends
clark
svcd
afc
fla
finkl
administrators
tpo
##ione
##240
##hib
jojo
damage
pencil
studying
fancl
corner
avo
##una
##bles
fake
##ilion
drawing
##agram
##izer
advert
apolog
aca
rod
catal
tsx
seasons
daughter
##itation
argum
koo
fdg
carefully
##uru
cursor
cea
delicious
datetime
fpg
router
concept
girlfriend
##iment
mont
kmplayer
butterfly
route
sop
##cheng
strange
advice
aspire
foo
needed
padding
panda
alien
pls
userid
guid
jtg
dst
pep
daido
daota
##erator
##rier
dish
evil
titan
harm
##gra
opinion
stc
attribute
##ila
england
surpr
##aries
dunk
diao
##eday
uvb
lvshou
emotion
succeed
##roy
constant
slim
cdf
below
##feng
##ilar
xeon
fred
dwz
##stahl
pon
ked
##608
saarstahl
imposs
##rem
bian
socc
##diag
##oda
kings
shoulder
minor
hds
loan
tube
aime
tts
##wh
blur
alg
male
##ally
vue
soccer
##fb
encoding
##ditz
groditz
lower
breathe
##afee
crowd
cmyk
##uctor
##acity
gigabyte
mpacc
mcafee
iccid
apples
dreaming
uin
sandy
wenwen
visited
dxdiag
harmon
sims
pudn
treasure
growing
manage
bash
pleasure
refr
convers
yoo
sool
duck
##igation
eyed
auo
##oli
aion
worked
holl
zhuang
pavilion
britney
jok
heroes
everytime
website
cue
tanb
paid
compan
##lied
external
antec
lia
##angle
strlen
##hol
kept
epe
vbscript
jjjjjjjjjj
doubt
names
crash
immedi
unlocker
middot
calend
meant
sic
ucc
##orpg
##ún
strike
colors
blade
feso
versace
pse
neigh
recogn
clip
##oder
ped
mun
plain
nico
##qin
##yd
numbers
ead
bbbbbb
arrived
sweetbox
helen
vehic
bomb
damn
occur
##6000
replay
cef
##ilities
motorola
cjk
sè
##eros
iam
addition
ore
shania
##iot
excl
wouldn
filled
macromedia
ine
gpt
allowed
miao
oledb
kms
ndsl
##2501
mimi
##cles
impossible
hclo
increase
tms
sds
coe
hime
##355
cinema
vent
##boro
yoyo
bacl
certificate
starting
##203
##205
excited
warrant
tga
romance
##eline
dic
slowly
##html
charset
xhtml
hoo
##321
controls
fixed
skt
bitch
mirac
ite
##like
ond
coin
qqq
amt
catia
hehe
shēng
animation
vii
ode
agno
##ios
##fei
##hand
##reci
wac
ced
browse
##erence
unable
demon
sheep
eic
niu
mina
decision
dion
octo
sbit
gim
dash
fault
hsd
cities
qun
horiz
agn
duty
abp
friendship
dee
##lier
rú
stup
kingdom
talent
##102
recomm
##stein
##jjjjj
dff
understanding
purpose
firm
hob
sew
adodb
ntr
psych
##xb
calendar
##paign
compar
relationship
transaction
pia
stress
accident
adams
quicktime
exists
##exec
dì
mgh
methods
sensor
##lw
hardly
district
dmp
##ims
archit
obser
sleeping
devices
confirm
ness
reflect
artist
##listener
vxd
render
##305
cbe
ras
umb
robin
asdf
eme
prec
abac
excellent
overr
warcraft
creat
celine
mission
tiān
rabbit
ntldr
##eness
twin
##wave
crsky
cancel
chocol
##eno
easily
shows
essential
nmn
named
typeid
ross
assistant
##ites
ait
react
ddddd
##yx
mds
pbt
##orton
cli
outer
misc
champion
gsd
lex
chou
ong
##eru
yuk
gua
sag
precious
smooth
hab
surf
liber
sist
moi
##aire
dick
excuse
##loader
##909
driving
jre
ensp
kpw
suo
diss
strang
wbc
##station
##ication
cccf
besides
translation
introduction
organization
eag
ket
contents
contrib
fedex
represent
avc
equals
actually
##xian
luna
elem
particular
##ifu
fireworks
frag
xxl
whi
msv
kanon
phase
lua
##ounce
implement
##ogo
phy
queue
uva
telev
##595
ink
tara
##rical
trick
jac
##680
hik
extended
pieces
clamp
feature
tst
shao
##ela
babe
jiàn
scream
purch
##irt
atapi
surprise
kay
broke
zte
##vp
lag
jui
poi
kono
wim
perhaps
srs
greatest
##710
pct
##vard
hawk
determin
passage
gai
labor
winner
gives
eld
##ples
stru
yán
lets
prefetch
sme
gnd
crmn
vegas
pang
deliya
##260
smoke
hole
##rel
pride
ccna
opening
##osit
soph
moved
similar
ohh
wise
##emp
appreci
pingan
germany
iris
spect
tei
mud
##izing
kam
rong
jsq
ttp
generic
gla
nul
brush
##window
##136
listview
##etooth
ttf
genius
lip
knight
discover
nen
wechat
worker
##eman
##ync
bluetooth
julia
mmd
ure
esr
##860
tek
kei
papa
whenever
##rit
approach
berry
wai
xiong
cun
dict
jizz
wnj
usm
minim
xuexi
mù
mobi
##kj
summary
ipone
##boo
##iva
jyj
tyr
shak
clever
##anth
wishes
andre
rin
yuè
highlight
gid
##spy
holy
3.5
##game
expand
##ondo
spears
jung
##urance
dio
checkbox
bose
liqu
fdf
owner
ipx
lemon
gor
apologize
obd
signific
reasons
##7100
emmm
dyg
dada
##oul
lookup
desp
##duct
closed
byd
bfd
walked
kart
csc
architect
ski
planning
adjust
finger
##itted
gtp
##hhhhh
##hhhhhhhhhhhhh
##720
socks
ois
mofile
##ered
btx
##ankan
telling
adtag
someday
darkness
myst
tear
reno
suffix
boku
producer
shuang
qì
doo
prepare
dataset
bdf
mort
lack
models
##ography
eun
cntv
toto
nove
corporate
pis
franc
profess
catalina
rnd
mistake
stupid
ewido
restore
pir
jenny
graduate
bund
purple
hes
ses
attachment
rainy
xì
advantage
##aming
##edu
##cpy
ecd
##8400
##onda
television
zhuanti
warranty
mam
##sters
piz
pollution
sakura
helps
aipai
##elve
arcgis
steps
career
lessons
kpl
##iant
rewrite
loga
bath
tomm
chinanet
particip
##270
##830
tomato
smell
glory
toshiba
bda
gly
halo
acqu
##ario
volt
feelings
bitmap
##aser
asin
interview
lich
workstation
revolution
arraylist
zong
selina
fae
bcm
sorrow
nubia
foxboro
lyrics
pred
##kh
##isy
hous
cō
##ames
phant
jí
##asant
thus
grey
schne
opportunity
cube
reality
solar
actor
exciting
mountains
##pson
maxt
microm
ris
macro
wheel
##rate
conven
vcr
fift
gcd
crim
smoking
ppa
borrow
##sec
leader
mian
##bg
ina
workbook
frequency
gates
nap
##uno
jax
##amin
##sphere
jes
gridview
hbeag
maven
mia
##antic
assem
datat
epic
##olved
faster
anywhere
youxiang
kankan
vie
embed
##scape
twelve
ere
trig
visio
elements
adapt
resume
##crm
ybx
cso
influence
commercial
jesse
equiv
honest
cfd
seeing
##opy
wend
tric
christina
attend
cōm
jenn
ctl
##stat
battery
compatible
prod
fade
peak
ceb
court
afr
##8800
hug
lmf
snake
dyna
sataii
prison
okay
opc
idx
laur
ward
sama
aia
oad
older
ladies
afd
passion
advent
whit
wins
idle
cac
mim
regular
inputstream
##324
beside
usim
##910
essay
caused
meas
##alled
susan
vocal
nac
mxd
cpl
norton
kne
##unc
attract
alarm
lor
palm
widget
boo
##umin
míng
defaults
holic
tup
exact
lbe
sdhc
jms
bits
kite
serve
league
##call
##0000000
ddc
assign
dvdrip
closer
##249
craig
types
liú
oicp
npn
greed
clar
emo
bbbbb
joan
decide
automatic
positive
ral
installation
painter
ourselves
classid
uninstall
coast
tops
willing
seag
ets
cancer
defender
##leep
jasper
married
robots
##oni
dock
##iga
altern
##1200
##xl
conditions
msp
female
michelle
poker
dds
##ipan
##atory
spo
sul
thx
pier
terminal
zom
elf
aar
##orp
perry
mistakes
una
##rique
afe
##8000
translate
##180
regist
porn
micromsg
ecf
mood
pound
bottle
destroy
juice
skh
utility
##enth
crnimo
hac
aunt
antivirus
##208
bree
powersh
losing
cob
sac
bla
mali
ideas
rul
forty
stdlib
citiz
fdisk
ece
wrote
cheap
dod
gls
clr
bradley
roman
jīng
##lash
vost
episode
eternal
pst
remind
srt
boe
##itong
wacom
sumif
gei
lazy
##thm
cleo
jsc
instrumental
imba
waka
inch
campus
##508
oneself
stopped
##idi
edius
mul
tousu
plate
hsp
vegetables
tic
rent
bjd
abu
opens
shān
absolute
epub
sect
legal
helper
##3100
##asonic
poe
fifty
importance
expensive
effective
ysl
tif
##fix
##213
areas
turning
ital
orient
mssql
emerson
zì
tet
asm
individual
gos
tum
hae
hana
eicp
vous
gle
testing
indic
##dex
habit
encour
gian
rome
cec
lamp
coser
pcl
bond
enterpr
disease
zixia
##kee
##emo
benefit
override
snh
##cv
vst
fù
nos
shn
wscript
priority
wrt
##650
adp
yeo
##ned
circuit
achi
handsome
wéi
plug
##leg
gith
##206
sentence
nae
##esc
chic
seal
scm
##emi
ius
jasmin
created
##endi
##ished
subl
extension
snd
bars
sets
probably
mgcl
cares
crush
alloc
zou
bfc
baa
##ternet
##xiang
##wy
vostro
##inkle
lying
##spect
hurry
xcar
dlg
##lang
drum
dies
midh
eca
##rack
psi
daf
bleach
cortex
nose
acpi
upgr
dop
aqui
heng
virgin
tdp
phantom
aur
##add
slave
remain
##ird
##oken
##wall
dup
anata
examination
micron
dip
terms
fet
vagaa
boring
edd
cxw
##td
refresh
##rick
ctc
miku
caxa
elite
xiexie
wxga
barbie
eleph
owl
chd
jue
##reg
slide
dmm
sung
##reet
saved
gil
miracle
yxlm
##def
##aram
4.
fue
fsd
##meng
investment
febr
pam
schneider
gree
alcl
##init
nil
baf
objects
kua
worm
##tre
regret
silk
electron
daddy
gene
taught
abroad
usher
hgh
##ribe
nights
htt
sip
fighter
nest
perl
##970
payment
avoid
numb
banana
saving
spawn
treatment
ndk
nian
ordinary
variable
rhythm
husband
tables
csr
stuff
##bour
cheer
rear
##huo
installed
##dj
##319
kel
opened
plants
binary
ecb
weapon
bmx
ect
##once
newspaper
zig
sources
advance
##xc
potter
army
segment
##hou
strict
meal
##roth
enterprises
svip
radic
##yao
sword
##bios
obtain
dbm
laura
##mei
ack
clou
imdb
chur
cui
akon
angels
sock
cect
constr
thre
cav
ric
eliz
edb
xyq
sally
radius
##reh
##uin
dfe
##print
uim
nnd
##sw
messagebox
##img
fog
worse
sherry
explore
wtf
palace
spare
##sto
keil
##etown
hungry
ooxx
cbr
cats
holly
##layer
agcl
fú
technolog
anyview
##uu
doe
cooking
mods
colorful
##etry
##570
##aby
dfa
naruto
guns
xcode
corre
##kan
aab
fried
hometown
employee
scaling
##irs
crown
bonus
uuse
carr
pand
movement
rsp
nel
lolita
##jjjjjjjjjjjjj
victory
##arius
senior
delivery
yuri
pall
creep
cath
atk
##olo
minus
depth
tome
bone
sonic
identity
manual
temple
##oting
lips
canvas
##addy
hobby
fft
jeans
numer
fantastic
poppin
alias
famil
avr
shr
stp
sku
swear
ida
ddb
##dg
##fil
cng
simp
caa
##gex
uusee
jbutton
mide
##uka
levi
diag
imgload
##osc
lant
enrique
##epad
vvt
efc
qcc
flame
umbr
iku
tion
rexroth
##abi
helping
asy
##dao
wherever
ssc
##product
hlj
0.3
qīng
wast
okok
networking
fatal
bloom
fopen
sublime
gmb
peek
##abeth
nsk
reduce
deuts
huge
notepad
cards
changing
developed
kokoro
bullet
caus
strate
##iciency
ito
##211
wsm
expected
##xic
customers
mole
bbk
##ained
tub
sketchup
dex
finder
##hong
efficient
mmsese
##306
gib
components
wra
dans
survive
cartoon
trial
datasource
##qc
blame
bold
responsible
##uted
##rike
couple
kent
sì
ers
coldplay
bigger
dif
mmo
inj
anth
victor
aus
mtp
##enter
legacy
##bly
characteristics
ture
scientific
dbe
##rible
sasa
tac
##emic
wif
crossfire
endif
##304
bedroom
enemy
##és
##empt
##ava
##170
sumproduct
recently
##error
##oko
cum
merc
##jiao
##ogue
nbs
spider
##eland
##iri
novem
axis
##lake
##760
##close
thy
foreach
sans
efd
wire
crypt
##inct
asme
patient
rim
jvc
##elin
enum
lov
punk
ebook
seagate
sdr
##8200
workers
increasing
painting
cpc
tdd
soup
kwh
tommy
##estic
luv
bpd
##shu
aad
cnki
gbl
lianmeng
jdg
nood
vvs
fully
rib
kris
duba
mma
lovin
boyfriend
dak
cyber
gran
winavi
smd
unless
nim
strategy
##draw
confidence
redhat
alco
destination
lect
concl
##803
eeg
lis
prt
watched
timber
compreh
gym
clouds
##iving
sequence
kana
synth
tdmi
sail
tae
yume
jit
jié
developer
gto
##aks
imac
als
companies
##aro
cous
##fan
secondary
bicy
##estyle
potato
##xia
##zt
triconex
lod
expo
emsp
cbf
facetime
ufc
##iru
##ired
fbm
xfx
tvoc
huā
worried
puts
ddf
marvell
dospy
indian
players
parall
##6500
idol
bub
harder
nop
scl
schools
prepared
##tip
hed
##soft
mesh
msd
danny
watashi
charl
mastercam
dake
fever
lieb
kry
shite
##oft
##nti
##iyi
kod
##ali
films
peach
kas
computers
glut
enet
accel
##inet
lovers
mainly
fru
spc
mcm
professor
prompt
kitch
lalala
dispatch
desert
negative
##uly
partner
wot
dty
##olve
juan
##erty
ido
dsd
##doc
quadro
experi
agreement
cnd
cyl
monternet
throws
##street
flush
shimano
adult
sola
3.6
mental
groupid
umbrella
relative
##ored
mpc
ats
nip
fifth
##pse
kingmax
neng
##mmmmmm
mmmmmmmmmm
chase
##cache
isee
uses
yinyue
cstrike
##aging
ouo
mein
tia
vat
scope
helped
gōng
introduce
tooltip
keeps
pointer
jīn
##325
basis
strcpy
##asha
fzl
dial
wawa
ér
flor
wizard
##exception
imap
##wise
##nx
kog
income
##umo
assess
technologies
cort
dive
aph
##707
##oph
trend
instrument
##esign
rsa
wsh
##xq
jvm
surprised
namipan
cvm
##ensis
adren
bryan
schol
liquid
slot
transp
jhtml
streets
roi
##izi
##anel
administration
##iper
entity
##gf
shouldn
anime
vns
argv
rtf
nelly
##tered
##790
ddt
##ening
towards
innerhtml
fraps
vehicle
mario
cycle
sich
pak
##otic
ntc
plore
##jh
xqg
xiāng
##omy
tda
upper
buffered
gund
sjm
cri
pmma
##guo
wèi
haswell
drw
meter
wealth
cdd
dsm
dxf
lamb
falls
bcc
rei
ideal
beck
nie
surround
yáng
pcp
mda
dipl
celebrate
tend
quarter
##enced
backstreet
mapping
marm
aop
africa
##307
reverse
##udu
##anyl
plastic
midnight
ylmf
sot
sigma
lau
extract
lawyer
prc
requirements
susp
cháng
instruction
zuk
jink
cò
configure
baba
tues
cycl
elizabeth
becomes
shua
neun
diet
##4500
##ecute
ebf
##dh
coord
upgrade
spoon
hia
##ements
authent
jou
jtk
independent
##312
tlc
passing
keypress
mch
qiao
interrupt
multiple
rrr
fca
robb
attr
xitong
teeth
##she
##bsb
##rich
ucl
##ened
kclo
biggest
##osy
coolpad
kak
codec
lotus
##appe
##ilin
tod
yufang
mso
doom
rig
fcd
voltage
##strap
iru
bamboo
guangzhou
dimension
valentine
hover
##urus
##xz
inet
arth
jjjj
peerless
ano
soap
qiān
imx
tourist
##ishu
acl
softid
##uni
ont
prize
aas
##enn
duan
bart
imessage
##iphone
jframe
capture
immediately
ppd
ferr
dag
shellexecute
sora
affair
aka
mò
concent
fbd
netbios
tec
yè
shèng
uac
##screen
ccl
bó
uat
jolin
xpress
redu
stayed
stere
substring
pleasant
crew
##lim
commerce
tvxq
vamp
##atives
fendi
invoke
thousands
shaw
tds
dcf
pill
ratio
fsi
jaco
##label
bootstrap
cdq
dodo
boots
courage
alcohol
##exp
nearly
applet
ppstream
acv
nmol
maxthon
youyou
uit
gimme
earthqu
llv
ftc
##eral
##wind
extrem
overflow
##930
fourth
anyway
returned
kvm
paw
columns
dich
shēn
mcd
huh
##father
yí
jiā
req
likely
ntu
deeply
orch
sono
mmmmmmmmmmmmmm
critical
nab
electro
rsi
gather
bgp
alanyl
##660
scand
produce
knife
agu
labview
lig
insurance
vaio
ddp
fallen
rbc
haz
rts
##bai
stk
ica
cmc
zeng
zhōng
##stic
loaded
vot
##717
##950
simpl
singap
kab
xnd
ptlang
lac
kag
brook
disappe
eggs
hase
fusion
##aint
##chang
getcha
##with
haier
dolls
##eding
chess
dfb
asking
stro
lck
##isu
plans
seconds
##wish
##oup
gat
tfs
##2200
tql
responsibility
gage
maximum
##job
fsa
##door
##enon
spoken
tuesday
onm
judge
##aloid
dmz
billy
3.3
##ppe
gmm
cim
gbc
thor
becoming
##bid
grav
##hold
characters
fec
ops
##iser
##ussy
nearby
attitude
hee
hybr
persist
##allow
boule
vote
##riage
disa
dca
jìn
arrow
agric
sher
##990
activate
pba
##jet
moe
cleaning
ark
yuu
roses
olay
dow
##cw
##date
actionlistener
salary
supposed
itself
gabri
efi
neu
tps
yuki
eaf
nancy
wearing
fortune
cucl
##iliar
physx
pab
tui
stuck
##316
yuán
firewall
verse
cole
umol
cosm
trigger
efforts
revit
srv
onda
ria
mta
ccs
sue
aware
linear
families
capacity
kpu
guanjia
caj
##lip
hits
mccart
arrang
##icit
deliver
glasses
crh
sān
mention
bbin
##mj
xtc
clearly
##cler
##212
zao
winm
assistive
##ego
sfp
packet
cip
challenge
ddy
voy
bqg
odin
##itu
##lesias
kcal
##ament
histor
aci
##have
frais
vcc
talents
##cue
loveless
##browser
##message
icbc
tfsi
gti
ule
argument
assets
gwy
exhib
mnt
clarkson
traveling
rare
occup
indesign
##ulations
geass
iusr
lied
syd
ican
ame
oxy
venus
##inate
twist
bundle
reached
ppppp
gmbh
cns
literature
##anying
bells
sixty
comfortable
tender
chén
mae
pif
rae
frd
##comm
curr
neck
craft
freak
flav
affect
uno
callback
ani
completed
mccartney
moves
datagridview
wont
fpc
sandisk
buck
aaron
bbkk
walkman
vocaloid
nerv
promotion
sore
plac
walls
faa
ijin
leb
##eration
indirect
iglesias
keeping
supper
plugins
kol
lancome
ucm
##ously
bum
lù
phones
dui
##urb
jovi
##onn
edta
gdi
##eln
abab
starts
calm
arred
fetch
generated
happily
##itary
##518
terrible
supermark
opencv
elder
anton
abby
##osition
sī
performed
peg
viva
keywords
bach
zdh
theat
qws
goss
dcc
plt
joint
quq
bcf
##7400
tough
congr
raz
5.
nts
razer
fishing
lsi
lane
##rypt
##okan
drug
##nh
ijinshan
vma
arredondo
appearance
jinkou
ams
faker
leuc
iqiyi
marmot
raining
##opher
cris
##cad
lenka
agricult
##crmnti
dfh
jyp
glc
broadcast
##eda
tuo
bags
poco
efb
projects
asleep
netstat
whois
kpt
##nu
valentino
indeed
hbr
volun
boulevard
##lection
shenzhen
analog
##comet
pph
qqt
isk
curl
aic
zhijia
jade
popup
lightning
##raction
wars
betty
moore
missed
toi
afk
wù
hybrid
bsp
kugou
tasks
mdr
criminal
volunte
alf
meters
katy
##color
phar
getch
##fen
envy
potential
tells
ges
cpm
rage
ddu
attempt
xrv
rach
faces
tns
cts
stg
sia
zsy
frp
killing
chop
ita
golf
dedecms
factors
##uxe
compiler
##oint
sisx
amour
extremely
runs
loy
hmi
##280
bern
tout
jesus
herself
barb
##asion
fileid
polit
simulator
##2140
##ati
##standing
leading
winmpg
toki
rubb
studied
##raz
wak
mgr
juli
phd
alienware
##980
hood
##iation
suk
scared
happens
espn
##ih
cds
castle
simply
cran
domestic
contains
variety
buildings
mtg
riding
tone
ike
fgj
ease
manif
nightwish
hnd
substit
sax
retail
##5400
##ompl
vice
maths
childhood
mlc
kor
##iac
utm
sacr
architecture
liked
mdm
programming
hjk
rocket
mgo
adreno
lean
cocos
stood
deny
esd
considered
upc
sxe
turns
ici
forgive
decoration
vig
##erve
myth
wmi
lgx
lili
upup
##olas
chap
political
clone
academic
dollar
citizen
osp
korean
rud
##area
onmouse
diana
substr
cleaner
tdi
frac
ubx
##sf
chuanqi
quantity
mdk
pbc
ibook
bitcomet
exercises
funt
sla
accomp
stsm
playground
eagle
tourism
chv
proteus
qwerty
diab
invited
costs
##mpa
##arn
##asis
kirin
entr
completely
joker
lev
##ients
biso
captain
gyw
midea
sole
linked
crime
brings
hurts
yjv
corn
thinks
csi
##ians
calvin
##active
magg
helpful
complicated
wallp
carried
incred
division
younger
mhdd
thoughts
cny
kom
fdc
vnc
thurs
dsj
##106
##gba
laughing
earthquake
shuo
stretch
jiān
subs
mile
encoun
geu
toe
chief
##igu
cinder
##quan
beatles
intelli
##andy
hdc
##ogawa
spyware
mpq
grown
logistics
cataly
truly
angular
joke
valu
sprite
gxg
btv
esl
jhg
jidian
invoice
##ifice
elephant
vov
cong
swot
rpk
modify
##pf
##dle
backspace
killed
earn
btchina
watches
sls
synt
cock
universe
innocence
gub
theta
assembly
puls
wes
appeal
ctr
saga
hdv
nal
languages
cvn
occurred
units
rpr
##class
peas
beb
hooks
poison
modicon
##uxue
chaos
retina
##wers
ears
familiar
produced
kappa
navi
macos
unf
tobe
##osis
bosch
0.2
tta
nda
##276
agv
cul
##795
forge
okokok
huay
infi
ignore
jué
##keys
rivers
showed
thursday
largest
convenient
toxic
drv
clap
lollip
rdisk
##5000
##gie
##ando
drinking
straw
asymp
satellite
instant
verb
philos
icmp
##case
dpt
##fy
##spe
hyun
pearl
hhv
sisters
##zp
hart
jaw
osx
##ulated
speaker
pong
lance
pxe
cind
mmsc
leucyl
hasee
##xs
telec
remark
ncu
lud
certainly
yee
mhl
fdb
##bf
preferences
auf
##otte
dào
##layout
##imal
restrict
##zs
thumb
relo
answers
difficulties
electrical
soldier
3.7
smb
housework
hlp
slip
ane
wednes
witch
wjb
reve
recommend
##ardo
##urer
jìng
rez
##kawa
hin
superman
soil
##acks
outputstream
sint
begins
brief
mua
warri
lap
##athan
##mov
hts
mcf
sides
jpanel
ids
##2180
nicr
shf
fing
tupian
ism
rein
dkp
roaming
##ophy
deutsch
fēi
abcdefg
##mission
confident
communicate
gdr
whats
##var
otk
carp
sno
practical
lollipop
##187
wednesday
osu
##dir
idiot
##qian
tens
verify
lantern
##688
mystery
gum
conqu
jfk
##7200
cours
supermarket
##menu
tera
dfd
##aph
unif
columb
obvious
##disk
##iding
issn
koud
##break
##berries
ghf
##kr
prove
##215
##uster
knowing
awa
aisi
##ership
waves
pipe
nickel
musical
yukon
consult
opo
daren
dfc
schedule
##arent
scratch
anytime
##amo
dē
smiling
navig
##crete
zfb
##ithm
spool
italy
hilary
fnc
wod
tol
ching
dmg
##ids
mio
phr
gri
sprint
##fied
yxb
rhg
ioexception
added
oki
sug
sdl
oda
dbo
grandma
fame
weekends
hermes
wrap
mzi
vul
breeze
nju
greater
pkpm
shield
hir
sink
southern
measures
dru
params
##ensity
wee
dalao
purchase
ifc
xíng
rag
doctors
horizon
ego
shap
kui
cjq
haokan
replac
zan
bop
greg
provided
india
cure
hfs
toys
##8500
##ibus
guar
inject
notify
nowhere
holidays
##ynos
gds
exynos
gossip
conduct
ocp
##vet
leap
lxy
vita
locator
bicycle
##ón
maintain
hah
dda
creator
connected
xil
trap
extend
##antec
objective
cfe
vas
##edo
hsdpa
strat
kad
##onna
eck
synch
koudai
fso
##icate
batch
houston
intelligence
highly
crit
hdp
##orb
##199
describe
fcm
dsn
vivian
mugen
appreciate
aeg
scorp
flood
##zzle
shun
0.6
sweep
fcb
bada
itudou
fub
dxd
stranger
tooth
guys
judy
kie
##cf
officer
wms
##enne
styles
sts
##store
sincer
marks
pkc
fhr
amanda
bluray
fuji
##335
##808
lea
##isse
##ede
noodles
lyc
divide
automation
##309
nucle
##zzy
beyonce
rooms
slk
swp
ecs
generate
lomo
nti
gut
arcs
atv
tele
resolution
interval
lst
fuj
fifteen
formula
gul
dnd
issues
brid
minis
syntax
datatable
##etta
semic
mdc
rubbish
fis
aix
##sheng
##619
yokogawa
smg
soe
##hire
mdl
##child
amor
##cled
stem
matth
intelligent
lem
promote
accur
hobb
##440
includes
cinderella
writeln
marsh
signed
zune
##xu
alison
##rise
cta
hspa
ese
##spp
twe
mhy
rele
rescue
##xiao
significant
ies
##igan
cnas
finding
hips
pim
##290
executive
billion
lcp
pics
forbid
symantec
vampire
legs
nurse
##uta
##uate
slee
lub
kap
obl
sharing
##6300
msx
cstring
located
csp
dept
kub
concerned
excle
insist
##sheet
bps
tenda
dasd
covered
corresp
scc
constra
beef
jacket
wasd
vox
larger
ymj
eep
els
##ourd
established
nina
zhòng
uta
rtm
svc
packages
tio
winform
cooperation
woai
lpt
vgn
reload
calls
ruo
realm
mechanical
##lements
parseint
##rw
##130
standards
kung
reform
frv
diagn
##ethyl
seemed
##sey
jab
kot
##zb
saa
frw
difficulty
funtouch
functions
nara
##190
exm
brill
sst
##center
chuang
hut
advantages
erics
yea
beam
whisper
noon
fbl
##vw
gareth
differences
levis
maroon
tablet
manifest
reposit
sht
tort
##thus
mse
##352
xvx
deleg
dated
hills
shown
alp
initialize
##isi
##nl
rty
flashget
wallpaper
kus
ghs
cousin
##phone
presents
lrh
grammar
fdy
marlin
hydra
albert
tango
rosa
##bage
rays
##zhe
annual
ghj
quatt
stub
creation
snk
burst
##adapter
cen
##rog
anc
dianying
gbe
nob
mcl
##iano
shipping
ought
carlet
lut
##ulus
uatm
recycled
##iration
neut
jfj
msds
##uer
rán
ohoh
krt
##cin
##258
amc
cpk
klein
reaction
rab
operations
lens
moveto
##ilder
##mat
otz
gsx
bsc
buzz
lezhu
dana
ggh
memo
fragment
woke
bcg
lifetime
timeless
quattro
pua
xdx
moa
generally
honeywell
winamp
apartment
ccp
principle
kda
ericsson
anybody
implementation
lrt
##4200
semicond
gio
##601
##vdc
evd
hog
httpd
converse
themes
mame
bitter
aduin
hóng
caso
ern
irq
duang
meid
zombie
lín
sweat
atmo
vick
combobox
shouji
xià
pant
hexun
onekey
errors
##218
hpb
strings
developing
alib
daisy
hgf
##193
hào
##chem
##endo
##701
fbc
fou
mex
ama
cay
committe
carter
missha
##ffe
acfun
directly
##eath
enhanced
poem
adopt
emerg
rì
marriage
het
nte
composition
latin
hso
lunar
cqc
naka
murder
neighbor
wpe
hush
steal
rta
proof
lene
realone
ubw
suitable
dew
manufacturing
lasik
profit
justice
##show
tmr
railway
folk
easier
eax
##ropri
hearing
zim
returns
searching
eec
shù
nipic
mann
##eror
prayer
efficiency
spaces
incredible
domin
designed
conversation
oak
remo
gog
liebiao
presentation
mits
cig
awd
stain
forgotten
fce
suki
egr
asn
chrom
argc
mathematics
corr
holo
defined
ptfe
cjb
exactly
apb
glu
huì
syt
sapp
efa
##long
pussy
##sequence
##ades
meiyou
bluest
chest
genu
deluxe
interpr
compact
dài
##vol
gbps
ipt
##parents
grandparents
##ships
afb
flags
##mel
yag
alip
permit
hsv
tuf
wnz
whist
##eller
hbsab
gom
former
ete
newhua
ske
haod
dancer
tóng
dbb
frog
##state
drift
##worth
fgd
aria
hag
btc
grep
##2160
tvs
jtl
##iced
javac
folders
prl
tas
reporting
bush
##upp
gāo
seas
tempt
joh
hammer
##pressed
britain
jjg
kes
profibus
updates
picnic
videos
issu
jiay
additional
aven
hgj
clsid
##398
ugly
nowad
xox
rey
whoa
##ento
##dale
sunrise
memor
dbd
cic
transportation
kath
apex
##dong
mixed
iid
ulead
tray
proceed
lys
fwq
keygen
nvs
##oming
compared
##228
multis
detected
cried
runner
##essa
txd
strateg
cih
winds
skies
shī
##cool
mls
##enie
crp
meyou
aids
algor
crisis
paste
cases
shx
##grid
glow
aru
nmm
gradually
mui
shame
##2.0
esi
discussion
##1300
consist
wwww
wwwww
supported
jke
pdc
ruler
contra
texture
mtm
comme
outstanding
evaluation
fay
##iers
bmg
astro
funk
bobby
trading
##icks
heji
bruno
##eds
##oxy
kilom
volley
mainten
voip
ech
bgn
bounce
stereo
wip
semiconductor
mik
##club
charm
fai
##ilog
earlier
rider
woc
##xiu
vap
aspects
alipay
lak
simul
csm
awake
goin
bong
northern
ive
##ftp
##bridge
empire
anthon
cutting
topsage
lmt
bts
solutions
tty
##586
pretend
nowadays
ftis
careless
blocks
hbcab
featuring
##4300
##216
aint
yàn
phili
dsr
bluestacks
relig
locked
multim
realized
##ppoint
lmn
arab
##keep
##6717
##sim
##obar
liz
##access
defe
distinct
military
pico
pione
presario
nitro
##aut
asi
claim
buying
vend
stamp
bubble
strip
experim
iri
rsd
jscript
cuba
dgc
lend
ovation
pasta
cherish
ffd
ffc
efgh
##inton
prog
portable
##inity
ntn
zend
iwant
lkj
efs
jog
##clast
xuān
tutor
pane
rough
oral
bench
gdf
##array
ftisland
tegra
describ
shirley
##214
fond
stam
floppy
thermal
cdm
whitney
templates
clothing
romantic
hse
dynasty
##730
harmony
disappoint
líng
superuser
aae
stad
casting
letv
worst
bfg
##cular
##jb
obe
##gon
tuan
##image
trunk
pcpop
fuel
primer
##otype
gest
shooting
bend
actual
daylight
sour
aptx
ziw
tast
fion
##mother
followed
##jn
skirt
aladd
dent
dishes
lps
jig
odd
pilot
altium
mumu
fos
permission
dealer
carrier
foobar
encore
innovation
##index
weiphone
habits
##ifa
tob
labs
teclast
srx
frozen
iterator
pca
msata
unfor
cooler
gamma
kiki
modbus
aoi
onen
llm
pcd
enjoyed
droid
como
vfd
checking
##beat
cmmb
airl
htr
grave
gangqin
fea
npk
snmp
vdisk
crs
polar
xam
slg
estate
airplay
drives
##380
pup
##540
downloader
metall
##801
aladdin
whql
##elli
ultraedit
##isha
rectangle
aso
zard
talked
##otao
aer
fbb
discip
entire
staying
dxp
imagination
bite
nio
##zk
##etric
taller
tib
jù
ued
estim
crl
koko
repository
##onym
ald
##bag
institution
hkd
##390
shū
darin
##run
dob
iti
##phy
xcv
##fish
contr
3.0
customs
dumpl
cnm
committee
otherwise
believed
##6400
##708
mana
servo
afford
paipai
zut
aya
ryu
xoy
##ees
truck
##bytes
##logic
zer
hallow
gpio
unload
popo
jtext
wkw
nef
##4201
##umber
trash
matthew
flies
arena
bfb
cht
highest
yule
enb
mercury
substitute
##322
amber
zhangmen
tóu
grip
nyu
settime
drunk
oliv
uniq
unexp
hollywood
satisfied
zoe
implements
##usa
sti
wincc
coa
gaokao
abm
cred
cvs
twinkle
dove
##ryn
subjects
aki
miley
ruan
shark
vertical
moo
hent
aabc
amx
nou
shoe
##kva
rdb
yak
##ialog
qī
gms
bloss
sweety
exr
epdm
samba
itx
hust
##illon
onc
##water
lonel
znso
jlabel
shuai
onenote
znd
nem
arcsin
##226
settimeout
boto
capcom
wisdom
impression
emperor
omoi
bok
tsub
ggmm
slam
blos
miami
gfx
kgf
wildfire
daum
cca
genuine
valder
chill
powder
infl
nong
prices
sne
optical
lóng
wendy
violin
diploma
cena
##ansion
kmp
ecshop
upnp
tracy
freeze
identifier
fmq
nsis
##960
mcs
appropri
electronics
pcmcia
catalyst
scholar
##002
fde
##abel
autoexec
ady
teenage
grew
geom
powerful
iter
wén
clover
hacker
guān
unexpected
peep
gad
##eready
beans
2.6
ensure
bnc
abcc
execution
mimo
ccie
##204
##rim
ān
conan
mmp
ute
moral
gior
yunpan
madonna
##323
fany
interests
hanging
naalo
gir
##inan
imageready
eru
pursu
ndsi
naru
decimal
dgs
##lers
thats
##ensions
minimum
pleased
adventure
pagefile
##188
sxs
correspond
mint
mercy
##aland
##vention
isol
phi
##osen
rgp
mnet
kpx
##spot
bling
cotton
krauss
bfe
nations
qingdao
docs
infinity
moda
appears
eden
crus
constraint
fruits
zome
ster
gbt
##lands
ccnp
runn
hito
punch
sqr
braz
synchron
gravity
anxi
ymd
entrance
##osite
avx
eighty
clc
juj
printer
drew
slr
messages
dct
hobbies
mbox
##etsu
##plot
breaker
tse
njg
pou
jak
scx
wah
lsd
sau
chuck
bāo
apq
qte
##qiang
fiction
##rq
1.7
winning
koi
gangqinpu
duke
statistics
spar
defense
stew
horn
graphic
##pb
andri
clin
##925
improved
zyz
##east
scenery
explo
fellow
nmd
myster
circum
nicht
farmer
eul
maxs
bbf
##owen
docx
aiai
overall
recorder
kaka
entered
zuò
##guard
hdf
experiment
hfd
cfr
##cai
sadness
hasn
mete
laf
snapdragon
multisim
##hal
##iture
specified
fallin
maintenance
onload
alternative
slmgr
fmvp
evdo
innocent
npm
##arin
rus
relev
animator
relations
locale
beer
personality
wàng
##track
greatly
evidence
vero
slight
harr
##umer
netbe
##obile
spt
torch
nmb
feedback
dvdrw
wishing
##901
actions
rhino
chū
##xe
advertising
reward
charlotte
grandfather
jingle
lna
sincerely
strcmp
buzh
houses
contest
nahso
travell
huashi
##stood
fright
troubles
miki
sino
##899
##isions
##fat
acou
jae
##ytes
kwd
chl
lob
cox
##odc
dnp
wre
triple
cbm
wand
bounds
##507
jmp
noi
alibaba
tide
kew
gemini
pcap
zqs
##shen
fisher
kane
##agen
##ango
causes
ovo
##317
##zou
fortran
zvz
##wx
hanna
threat
relay
mie
##ining
quote
snoop
iop
coz
nca
nuo
furn
nervous
##ania
yún
nán
rings
##udio
ibt
reflection
##311
registration
botox
clown
bzm
xlsx
tfo
anch
##rv
trek
ices
tpl
bowl
##501
zhù
##pez
pace
transmission
successfully
esata
loser
taob
##orous
##ators
marque
##oru
##iden
shadows
buzhidao
ation
eeprom
uvw
hbm
monica
xen
policeman
sapphire
##izes
##vest
nanjing
##ubi
existing
eut
qián
thief
conflic
lpd
courses
juy
imo
adele
gcr
fep
##505
unre
shopee
flip
rfc
nous
kira
##mod
amn
##237
##kd
bent
tus
rer
jude
naclo
mmr
argent
irr
kow
##rees
ove
doors
niao
wangye
authorware
nodes
shay
shower
ksp
nnnn
mea
fluent
beep
smaller
shooter
ilike
##izhi
poke
grandmother
##eon
oooh
ssa
detection
rie
jal
loneliness
hier
aguil
hav
aguilera
tdt
logical
##jm
tape
belongs
accepted
moc
variant
igf
gfd
challeng
##113
pue
triangle
tiss
subway
rai
diva
##stop
simulink
konami
matters
stev
workshop
andriod
##andon
cate
mts
adodc
lighting
wound
dlx
accounts
drown
chlor
barbara
makeup
doctype
vida
species
hú
blast
nuk
mhb
tef
bic
ufs
##anned
wayne
iro
simpson
keyi
volleyball
acp
gala
wecn
##kou
kawaks
skp
pmw
##ulin
benefits
employees
ihave
increased
rita
##zn
##arily
mitsub
youni
platin
combat
dile
plm
obc
##222
otl
garnet
russian
ler
##itate
anr
kiz
fiber
hosted
champions
ayu
laws
tpee
tir
##onto
##msg
disappear
biang
violation
qiú
selling
rains
##iana
gdb
yīn
qbz
##loan
imaging
lara
xiaos
conclusion
mju
ctx
hè
abn
quartz
simulation
sù
alle
billie
miz
hba
gloria
depends
sosuo
##hel
qqtalk
pata
dys
##esa
struggle
egl
bry
eui
resistance
aom
reports
##aren
##conn
shockwave
##ogen
##reate
warn
digit
msvcr
motherland
mima
somehow
secrets
leiting
##eston
odi
##gpp
multimedia
roads
gau
funky
soy
pbs
mata
subt
icd
ascend
gosick
skull
koe
lecture
lnkfile
nwz
connections
dcim
huáng
zhuó
##chu
aaf
bbt
yuku
wwf
oop
lui
picc
neil
tof
pwr
throughout
scripts
torn
christopher
aee
##dz
##353
agency
organic
epp
bokee
tests
##enu
guil
ndf
renew
zhēn
##iche
usual
leather
unha
semi
jumper
brazil
nbr
yaskawa
cyc
junk
xywy
qrs
ckf
bour
advertis
ally
bufferedreader
deer
timest
unlim
columbia
##1811
ree
##keeper
vivid
widely
voices
textarea
rtc
wàn
vbc
##cell
##rock
##cont
sichuan
pants
##race
toolbar
belt
jeremy
knees
penny
lí
savings
rtk
ndy
drm
mitsubishi
cyrus
theor
ubc
requires
construct
liuxue
##udi
tianjin
silly
oss
dht
##401
scientists
##olia
gsa
penryn
yonex
atheros
##107
ggjj
coal
flows
cranberries
dism
trop
zhanji
grandpa
gbytes
plenty
freestyle
nir
kia
jiāo
ahh
hepa
ecm
##ilia
cqy
doa
upt
highway
etl
examples
trem
wik
doin
hbeab
pitch
4.5
giao
pioneer
hugo
xixi
##itan
papers
yon
huà
extern
abg
jum
uplay
digic
ery
mcg
##zj
geng
slay
wheels
kefu
vocab
mhol
underground
wpf
zin
sector
##defender
cvc
##xpr
idt
##anni
begg
limx
naku
hán
##elu
grate
compatibility
signature
ddl
bitdefender
sensation
svg
ene
compile
eea
parallel
rbq
concrete
nextint
##chester
jjw
ume
cdef
##osi
tbl
rnb
pkg
calib
atmosphere
emoji
vary
buddy
bored
toward
bingo
eprom
redist
kds
##233
##estone
dressed
bootloader
##editor
floorf
rural
eine
rober
sust
ira
luò
fucking
picasa
gfh
classloader
timberlake
qaz
stein
##238
cgc
onto
lyric
##919
##217
usage
micky
##idents
passwd
texas
mathtype
jur
lls
weld
wax
##nz
watson
terr
delight
noo
##fall
tpm
comprehensive
##reds
synd
weblogic
bones
##anas
aeo
panzer
sii
afx
forbidden
degrees
tyrell
networks
kaze
##atar
##bm
##785
##sj
blossom
hbo
##525
pole
swan
##zhong
ruu
ohs
##ifei
birkin
kawai
##333
needn
dolph
##uti
##uxi
wenda
sana
fclose
loose
msxml
##frame
sekai
gamelo
partial
lsass
kuwo
gifts
jib
windy
xmta
xpl
stores
loudly
tis
##806
puff
mì
mold
lung
fgf
robbie
indu
##265
olympics
tiancity
huai
moments
deta
brilliant
walks
zī
sejiba
sitem
woah
jewelry
edr
plist
dreamer
bootmgr
iwill
wrapper
##vely
##upport
##pix
shàng
sgx
nothin
aha
ssp
merom
kenn
dmx
msr
protein
##490
shm
tribe
bwy
inline
ifun
vor
##amed
jiji
zil
zqu
##gia
ccf
xar
nanana
resident
dudu
boston
arashi
avs
ejb
pbo
cuda
evan
basara
bā
bump
trail
phpmy
##antha
audit
vital
badly
##ours
didi
drops
gameloft
hoping
hyc
climate
assessment
##338
panther
tracker
debian
##eton
##php
sting
seriously
##oster
aspect
ruò
achie
##spective
dyn
fiona
lpc
criter
ffg
memtest
situ
appid
goldwave
listbox
yard
oni
pvz
transparent
suffer
icesword
floorfiller
##iables
baid
##7500
##111
rapper
ftn
disturb
bearing
attachments
ela
graduation
pens
webbrowser
##117
bron
cvv
valuable
hundreds
currently
precision
gag
lse
quy
blizz
##ppers
nfa
sany
sysrq
leona
determined
baseball
##ifeng
##114
bib
##borough
vsb
eaa
##encies
##khun
xiè
nichkhun
cfb
cheats
phpmyadmin
included
##vv
ghd
tpv
arguments
sees
negot
zod
hql
lpr
yóu
##qiu
##docvw
tha
##458
dilemma
apl
wml
powershot
dap
marine
sacrifice
paim
liver
docume
wie
racing
##ée
zhuo
visitors
shdocvw
judg
cmm
mari
addict
digi
collections
toggle
##agic
rct
contribution
rust
chate
yzm
visiting
##941
sometime
##502
russia
mans
raised
iar
bmc
gianni
joo
hentai
publisher
ncl
encode
mongodb
leu
wos
foods
mend
rak
ryo
drinks
surrender
hcv
isc
ggt
##edy
spx
schema
ninety
##920
wmd
duff
##ifen
fancy
asks
xnj
dfgd
fabric
separate
laz
##iry
##ulary
xiào
attraction
banks
##osing
larry
locals
cola
aoa
eleg
jsa
gtasa
dido
ineed
nonono
##heng
wells
aries
ksc
divided
cfc
tch
##ewell
algorithm
wuhan
rubber
hikari
cruel
ldf
nfl
pha
##ancing
omron
wey
decade
##ère
##login
arrival
hkg
vfg
whosy
##ourdaddy
whosyourdaddy
##ocus
formal
anonym
firmware
##andong
carn
dwd
##xprxy
actxprxy
appropriate
eub
nta
sdi
diablo
osd
##511
##udo
seventy
relevant
##elor
##mlk
follows
filtre
tickets
giorgio
grg
aslist
ntg
##ixi
dvb
jill
##cht
pga
vibe
discount
unlimited
##wich
phon
premier
associated
lè
gst
##alu
facing
kissing
teaches
soi
rachel
cfp
predict
sons
aol
manufacturer
adata
cfo
terminate
##ulet
moden
mune
cog
seller
bucket
univ
draft
cie
authority
iph
sniper
##995
mzy
riot
signs
dàn
##223
nee
laid
fod
sites
spanish
jessie
acos
oliver
dsqc
mó
lof
overse
cara
iap
crawl
##phony
wamp
##rod
midp
##118
picked
abandon
reject
idon
artists
hue
suppose
benj
sld
illeg
ardu
##528
chose
timestamp
##618
resultset
webkit
uot
personnel
classical
##chant
parag
sbr
clay
compound
praise
foolish
americans
pity
pine
insight
uniform
ifunbox
joey
attributes
##server
odg
greet
vpc
mapp
symp
rational
##yt
reported
eason
athlet
dptr
vooc
perman
audience
acoustic
alic
scn
aida
mif
etern
jiāng
xss
##eli
quietly
mib
ireader
sunset
persons
dmf
greedis
lnode
zài
promises
vocabulary
svd
bailey
spain
ous
hearted
mira
wsloan
waited
rox
##apers
pharma
ccfl
timed
toil
inventor
##mgmt
classmate
nia
farewell
##805
mtime
atc
##off
sofa
iou
powershell
haodf
cartier
historical
keith
zgs
stable
nis
##eryl
xyj
mdy
ntp
chy
quin
markets
xii
##chool
zun
fota
xor
ert
barr
julie
decode
##client
ubound
copper
vos
sweater
anchor
ldy
##iveness
kuo
ahc
emergency
##zhan
explicit
skg
anni
preparation
therm
continued
pii
ài
hoshi
##start
notification
marquee
pist
##315
everlast
qhd
pptp
joined
unp
##227
##rive
syk
crossing
aav
troy
bdb
countryside
##oly
intr
tau
privile
drawn
irc
zhishi
lts
organiz
tradition
hihi
lopez
##00000
opposite
wyt
filtrec
nss
heartbeat
pum
tú
genie
hpl
remains
##icat
ashley
scientist
là
haoting
analyze
phosp
unhappy
bff
##224
ppo
##789
platinum
##8600
rah
ssat
vertu
fah
mps
nicole
gequ
pth
##zing
##sum
tongue
dome
educational
##rene
cather
frames
formation
##iest
linn
yat
mustn
dsh
sending
begun
##see
tant
mjc
##gun
sow
jackie
theater
sauce
latitude
eoc
baco
creating
secondly
##illing
oto
involved
prosper
neon
mute
##959
scf
hoc
oriental
ona
##esta
##isc
ospf
jni
counc
qid
wad
byt
cage
worksheet
##rative
prev
berg
stroke
ghc
novo
shakira
##ilu
unus
##amine
lookin
waters
##proc
zhū
helio
benjamin
fry
##icing
xman
ned
angeles
batt
closing
haj
vant
fot
udf
##705
##itech
mnc
jsb
xsl
opportunities
lucifer
mime
nani
mitch
mau
shore
pandas
perip
libra
riv
sailing
5.6
##1650
guangdong
##wide
spice
wowchina
crowded
mechanism
rdt
polite
blizzard
spoke
spp
teens
countdown
##grad
##cut
ante
##236
orders
dyx
wrc
ewg
fern
swt
rebe
hashmap
prototype
##ador
och
kingsoft
cngba
kul
sydney
##arts
tma
huayu
rit
aads
improvement
##olor
##402
taskmgr
lyx
sage
gcs
junjin
prism
qig
pdp
netware
hdt
nid
quantum
aaks
booty
guilty
cigar
cem
volunteer
nrg
[UNK]
